3f6fd59e
3f3903d1
3f046083
3f2d5d04
3f1223a2
3e681795
3ee8896e
3e6218f0
3f2ad6f2
3e5f78cc
3f333921
3eac2fd6
3f67bad9
3f0202f3
3f2ab459
3e0ed2dd
3f253d6c
3e370f38
3f44d96b
3f55814d
3e97fa87
3f435400
3e9cfc7b
3f485b5d
3d96332b
3f5bb2f7
3f23177e
3ebb6a5e
3f557306
3f46d81b
3f096f2e
3f5b0d58
3e929489
3f0bce2f
3ec3fa2b
3f03aeb9
3f3bce1c
3e4c9013
3ecc3c6a
3c3e0af7
3f4dcffc
3f6486a0
3e703738
3f777959
3f7ebb53
3f4f712d
3dd0f3d7
3e02ad07
3e12ced5
3e11cd5b
3efc4eaf
3d891242
3f50f423
3f7b6323
3f16011e
3f545270
3e190768
3e8392eb
3f5b1c3c
3f04e7f5
3eac4ef6
3f7995e6
3e9758f6
3f285a98
3f549ed3
3f4ba557
3e919f38
3f6eef05
3f4fbdeb
3f01e74c
3ed8b52e
3f4dcfaf
3f1284a7
3f7a329f
3f4452ae
3d2c98d9
3ec9f10b
3ef59489
3f43a946
3f3cc526
3f7fdc8d
3f23d0ec
3f003e41
3d58e477
3ec254b8
3f547136
3e98afd8
3f1935ef
3f2c0b04
3f457d1f
3f503864
3f349ac6
3f7c3a95
3f491e7d
3f71c043
3ea6b60c
3f647c90
3f5e03bc
3e1abc8d
3d9d6986
3cd761c0
3f7d546e
3f6992d7
3f5051c2
3f3e72f7
3f6bc39f
3df38bab
3d5697aa
3f4d3dbb
3d6210ee
3f17ff13
3e4e6c98
3b4001dd
3f403432
3d8622bd
3ea14567
3f1e6f83
3ea01efe
3f4c3881
3f623ca2
3d7bf3e9
3f2aeb77
3f015eb4
3ef7bf23
3f49aa57
3f34ef37
3eae7dfc
3f2fe87c
3eef6759
3f60cbc7
3f115e40
3f53b374
3e11bfec
3e99f581
3ec23a9c
3e62d86f
3db919c1
3ed556a2
3f497c19
3f5a4cb7
3e1edcbe
3f4818d2
3db4bb5c
3e4c427a
3f3d9423
3e9ce8c7
3f37a345
3f6987a7
3e374355
3ebeae80
3ea8c1d3
3f73635b
3d74e7c5
3e3f84cd
3f43bf5c
3f2b8b0f
3edd63cb
3e2a505a
3f4f7365
3eae71c4
3e3a5b75
3e6fc96d
3ef83d35
3edd5d75
3ef21ecb
3ed26693
3f06ca7b
3f183328
3e3b4473
3f43d632
3f449a9b
3f5b5ce8
3f2c6917
3d01b14f
3e000cbd
3f1038cb
3f687086
3c70a703
3ed5907a
3de3efc6
3eddaf11
3ed9d720
3eedd45c
3e79bfdc
3ee1065c
3f6e98de
3f197a20
3f061801
3f1b1932
3f754c80
3eead154
3f3c627e
3d5d85d6
3e12afff
3ee39845
3ed00d56
3f5eb2e2
3ec1bf2c
3e7fcf2e
3f6c5379
3eb1aa38
3edf38d6
3f24f69a
3ed83c0e
3e2150e5
3b52338c
3f5dfb3f
3f0708e1
3f454dad
3f0a643a
3e28c9d9
3f2c9217
3ed60c81
3f45f8ed
3eced1b9
3f4012e6
3f3339db
3f239e49
3e0a8ab2
3ecd6e28
3cf84b68
3da068b5
3ebf0dd1
3f177755
3e856b89
3ef4d0dc
3e83219f
3f2a4e3a
3f6cbafe
3f02804b
3f6a469e
3e138e4b
3f2f3212
3f3b893e
3ee929cf
3f15dc0f
3f07b61f
3f277bed
3f1b4444
3f1f312a
3e87aea3
3e237646
3f25d0d5
3edb6eab
3eb4152c
3f3945c7
3f2253ed
3f36275f
3f3b8acd
3e85194f
3f72cb84
3f4e2545
3be3fe75
3f3d8dde
3f299b00
3f1facfd
3f0cc425
3f3536da
3eab351d
3e7ee2cd
3ee203c1
3f2fe92a
3f718a5c
3f26b1b4
3f3d2883
3dff2be0
3ecbab37
3f394330
3f028994
3f7ac96a
3f48b7d9
3f6b061f
3f4b18e2
3ea3191e
3ecfec79
3f44dc84
3f13f416
3eb28aeb
3f52f491
3f53e36a
3f75422c
3e789590
3e7b5d00
3f6adbf2
3e2dc428
3ea8afd7
3dc334e8
3e847c28
3e48783a
3f03fd93
3e9388f4
3f07c99e
3f10a5f4
3d367a58
3f1db854
3f76b9b7
3ec14d81
3e6c32dc
3e063791
3ed67e3c
3eb9e4d1
3e99a7cc
3f092ffe
3e4c3757
3e511c7b
3f37e308
3dca26b2
3f147723
3f2a7630
3ef5985b
3f45ba06
3e28d72f
3f2cd669
3f721e82
3d27707f
3e9da679
3e35a672
3efa7d10
3ecc29aa
3f03f8b9
3f2c147d
3d171d39
3f7843cf
3c257cc7
3f420c70
3ea23d59
3f7cea77
3ed98bc7
3f18ff0f
3db806a7
3f27c56e
3dd232d3
3d85c073
3ed31b2a
3f2751b0
3ef3100d
3e5eecf4
3f64534f
3ef4fecc
3e7804cc
3ef7a067
3f591f19
3e123127
3f3edb1a
3f345831
3f22c2a7
3ed8c905
3eea3eaa
3e1f56c1
3ea1e91b
3cca3bff
3bc5b11e
3f76c5ce
3d1f6fea
3ecee987
3f3c1c97
3e8d53f3
3f294809
3ed5b5d6
3f5fd4ca
3f6039c9
3f29e1db
3f34675d
3f4e2c37
3ef643b5
3f5f76e4
3e5de062
3f5f426b
3e822c6a
3f2b37d1
3f333fde
3f3f6bc2
3d82b4c2
3e3afe7d
3f74f785
3efab6aa
3e96c6f6
3f3415ee
3f72f86c
3d247558
3dd8f4ec
3f519607
3f1b5bc4
3eb0c09d
3f7b521e
3e4aee2b
3f53c355
3f14110e
3f68ab08
3f4de33c
3f1df627
3ebe5873
3f1ccc5b
3e55b3cc
3d35b176
3f0347d8
3f53e401
3f74f8bb
3ef51d51
3ecc22fd
3f39c4d3
3ea3b3a1
3ea07c39
3e5bd3f8
3cf47570
3e843008
3eed881d
3e03473d
3f55b2d8
3f58a714
3f3ca398
3f40ef04
3f73cfef
3dfe1764
3f74f4bb
3f200f5e
3ed895f7
3edd7ba1
3f57b5fd
3f409f0e
3edd9506
3ee56c37
3f007374
3f431aac
3e3c6184
3c41ab27
3f00b2cb
3f6a0402
3e7534f3
3ed933fb
3e1db7e5
3d925171
3f212341
3e88ea29
3f767b8f
3e88789a
3e830cbb
3f250e92
3e2ce27a
3f746d25
3ed4f335
3f5ca5c2
3cf0c109
3f77fe99
3e94527c
3e0bf809
3f1d26a9
3e174e60
3f7aa7ef
3d6efbed
3f6c134b
3daf5c9d
3e0f9dc3
3d8dd4e2
3e771875
3e6e7f0e
3ea9d260
3f436e25
3ebe6a36
3f1f58d0
3e07c1dc
3f416264
3e5d707a
3f2fccc0
3f4d6df0
3ee08a01
3f05dfa9
3f3b8fe7
3bdd4901
3f4f72e3
3d659b7a
3e3867b5
3f5a9ebd
3dc544d4
3f4fb560
3edd00f9
3d9298c7
3ed0f4dc
3b632176
3e82f979
3e8e9bae
3f65870e
3f757527
3f253ed8
3ea4e9c1
3f55350b
3ef34e1e
3f1e9a5c
3f326dce
3cf1994b
3dc71483
3e80eaf9
3f45db39
3ec4b6a0
3e921139
3f115b28
3f3e8155
3e1f9957
3d1fe980
3f630e97
3efbb518
3f5c45ab
3f2f575e
3f7bc3c4
3f2bee86
3f432ad9
3e8a5221
3d4a4136
3f7af26d
3f1cd261
3ece3bea
3f1d5a8f
3d93f2df
3bf0aaff
3f77c708
3f1f939b
3f3057d4
3bee8388
3e55d32a
3eb52f98
3eb8d119
3f6b5524
3f715d94
3f4cc706
3f1a09a3
3edf90b4
3ec05ec8
3e30184c
3e156167
3e4674fb
3f217ecb
3ea18908
3e8d808f
3f3ced4b
3f75b788
3d388da4
3f29b863
3e00f5eb
3f4c01f7
3f3cf925
3f6ebd31
3e9eec0a
3de6d89e
3f4c224a
3eee52dd
3f4b5db5
3ede175a
3e575cea
3e9e2511
3f296ee7
3e417067
3e835580
3eba0515
3d87f536
3f4a2f05
3e9a3130
3eaaf40a
3f754c27
3f408dd9
3effa5dc
3e93b03a
3f5f0b8b
3e79d99c
3e8e2c7b
3f108961
3e00d1c8
3f55f071
3e9680bd
3f112212
3f247b60
3f2437d4
3f6ab261
3e7a72f6
3e98d1ae
3d92c1a7
3f100ab2
3f0c2fa4
3f4eb27f
3ec54216
3efb822a
3cdc4cb6
3f556ea0
3ed7f9b9
3e25d9ac
3d8e64ab
3f726809
3f43c087
3f6e82d0
3de03565
3f56cec1
3ef6996d
3ec1ba4f
3f608e82
3f179a27
3f536f12
3f789f62
3f5c3dd7
3ec2359d
3f639027
3e5900c6
3c917f61
3f2a765e
3ef65034
3d07a218
3f21a997
3f7bea45
3d9387dc
3ee24f38
3e6ea31e
3e44ea06
3e626811
3f3e70e8
3f0ab1a8
3e9fe0c3
3f1d3468
3e393ffd
3e4fb61a
3f137bcb
3f41edf8
3e0e5a3c
3f6e5693
3f72a9fa
3ef4dcfe
3ec4ff8b
3f0464cc
3dcd32ab
3e5b2189
3ef2c538
3e91a877
3ed7675b
3f52e746
3f4deeba
3f028674
3f007fea
3e340ea0
3f3d783a
3ed71dba
3f264e90
3d1a08eb
3f373120
3f3263e4
3f03dfb0
3c397feb
3ea1b274
3e3cd296
3cf6d836
3ee93045
3f307961
3f386ad5
3eb82789
3f63d3ef
3eb825d0
3f44c74e
3f31f04a
3e3b1a94
3f19ca15
3da435ac
3f0f2f1e
3f4ebe27
3effd444
3ee6092a
3ef2b5ce
3d3c38e2
3f2df4dc
3f6c4a26
3bfa13b6
3e57ec01
3e96c312
3f2f8396
3f7cf927
3f530c43
3e11832e
3f6664b4
3e1b8036
3dfa5e87
3ec3a02c
3e79c288
3f4d1356
3e824d33
3f70be66
3eda1a37
3a582cfd
3eea0ad6
3f728455
3e0e54ab
3ec6cd05
3f54df27
3f49283a
3f678d6d
3edd4a7a
3f240833
3f51db1b
3f0b19ec
3e000488
3f5ecd0d
3f21f442
3cf38411
3ed93e16
3e2b7a09
3f37b355
3f44e6f8
3eb3e566
3f52099f
3f100bda
3f19632e
3e5713ef
3ea77966
3f6713b6
3f6d5e01
3f0aac4c
3dc61c4e
3f774b0f
3f17d44b
3f0de72c
3f790267
3f0270b3
3e607663
3f33a933
3f559fd2
3f09bb18
3cf64f3c
3de7a2d6
3f1b8eb4
3f54db97
3f5b60fd
3f6656d0
3ed8e496
3ebd09c1
3d0d9fb2
3ee397f2
3eec2ed9
3f4d0571
3ee8d0ed
3e543d59
3ec85eaf
3f0541fe
3f4e3aac
3f623adb
3f066a2e
3f62bd59
3e6bff5e
3f726a33
3f5ba879
3f4a0c4d
3d37412f
3e9f8054
3f09e04c
3e456204
3e6f1957
3eeae132
3f05434e
3e8cc4dd
3e2c6ac0
3eac9ad1
3f590329
3eed89ca
3eb1cf14
3f008202
3d26a5b6
3dfec4fd
3f50c5d8
3ec0bd66
3f3a6d9a
3f441f7c
3f798637
3cbb3153
3f70571f
3f5610ff
3eed0f1f
3ed40137
3e1e8f35
3f48ad7a
3f29d1ea
3e9e4580
3f3971d9
3cdc8a36
3f0956f0
3f1d0fe7
3efddf74
3b693b5f
3f2c3217
3ef680fb
3f11e412
3ea04152
3eba9332
3e8f2828
3cdfc297
3ecfad11
3f3b7f9f
3eaf0be5
3f1e0609
3ee82e10
3f67ff19
3e6031d1
3d2a862a
3f3596d9
3f2986e6
3f43ec93
3d27437d
3f67b9e7
3f494654
3f2a1f20
3f6a7edf
3ee550ee
3f0e675d
3e822305
3f656783
3f753b03
3f29ae63
3f672200
3f4605c2
3f1eb13e
3f0ba647
3f6f673a
3e8d95fc
3f3fee07
3e92d630
3d9e4bde
3ef7691e
3e5db23d
3f7ff613
3e352147
3ed2582f
3f54c04f
3f58b565
3f572691
3f4ea7d2
3d85c597
3eed1a52
3f6b88fd
3f0df6aa
3f17adb4
3c264c96
3ee681cc
3f2fedf4
3f7a93af
3e5864bb
3f259d8b
3f59d991
3e2b98c5
3f0863cb
3f0e4b13
3e1921c3
3e849499
3f505853
3f4a1d93
3b7c9aea
3f6bb9a9
3dbd8043
3e8ebe90
3f695bf9
3f4a6a62
3ed31826
3f429423
3e7b60e7
3f7d2958
3cc3f7af
3f605237
3f12b2bf
3e87db3d
3ec091f0
3da3dbfd
3f1e523d
3f7da428
3e7f3f57
3e9b37df
3f366d74
3eff7b80
3e7149fd
3ee67b8a
3f487419
3e1b6041
3e19ed98
3eaa163e
3f2e4178
3e1a5d03
3f00d719
3f178f87
3f31a2e8
3f242901
3c6a4661
3f0802a9
3f4701a2
3e8d7395
3dd1b1a3
3f7fec31
3e907ba3
3da78535
3e1698e5
3f6ada83
3f33b0dc
3dd939c3
3f7785ce
3f6b0e58
3f4d17e1
3f2192ae
3eccd0e4
3e0160df
3ee1157b
3f34482b
3e7eff16
3f1e4957
3f1d6bfe
3f62f550
3f661c5d
3dbace42
3d1f8ab0
3f7dd340
3f7d26c6
3cd44172
3f52a691
3f17a98c
3d112ec5
3e6fa715
3f782081
3f18fe49
3ec1b21f
3c28c441
3f2683e5
3e5d74ad
3e833604
3ee6500c
3f299c59
3f249bc4
3f23e509
3c9d0cfd
3f2049a9
3f5940ed
3f3436d9
3f33ed3e
3dc7bfb9
3f51adfb
3dc01d53
3ecefafb
3f4f1bcd
3f46f2ce
3f524040
3f7fe940
3f51639a
3ec51d0f
3edd35c6
3ecedb61
3f088d98
3e358021
3f52249c
3f7d9130
3f29d936
3e1e4c9c
3f0dbcc7
3f7cf138
3f426eb6
3ee83126
3f5de6e1
3f203833
3ec732df
3b02f635
3eb9d33d
3f620138
3cdd68ea
3f21b2c2
3f3fc6ea
3efa402a
3efd482c
3f12d7ea
3f47325a
3f16da39
3f57e0d9
3cfec171
3f17f554
3e306589
3e9ca5e1
3ea9a957
3f3779bd
3f2d8462
3e6f373a
3e365089
3da59d2a
3e8ef926
3ec2200a
3e99b7b1
3de51354
3e982857
3f6bd925
3ef13b60
3f779cfc
3f710b6e
3f79defe
3f5b4340
3e9c1006
3f372e13
3eec2f89
3e857396
3ec49745
3f1b5dfb
3e070783
3ea752dd
3f4ed156
3f0ea71d
3f7dfe7c
3f4cd7a4
3ec61edb
3e51c1e2
3f62e4e8
3f1bd680
3e2e141a
3ea6e294
3f2d79d1
3f14d209
3ee99c3c
3f658f16
3f197f86
3e3de22b
3ebb9a15
3f7f8d6b
3f473064
3f18fc88
3ef986a7
3f0b88cb
3deb69d5
3ea0e4f0
3f73287f
3f4ad46a
3e7f6c84
3e6dc69c
3f3021fe
3f0b3844
3f787c5e
3e6a3746
3f2ef956
3df061e3
3b78c3a0
3f0f07b2
3b55d529
3ecbe081
3f621886
3f678049
3dc2fd11
3e970e1f
3f56ba2c
3e34cc51
3dcad712
3f46e7e3
3e823bef
3ee7dc49
3f367cdd
3f6dd268
3f7f568f
3f655101
3ef29bde
3f3901cd
3f031097
3f62553e
3f0e2cbf
3d55a4ad
3f6bc0c8
3f292d14