3e2928b5
3ef750f7
3f14ce97
3ed5fbd9
3f1bb137
3f26213e
3f756bc2
3e1da6fe
3e8358de
3e46ddfc
3f7495b5
3e2406ad
3f77b913
3f1430b1
3f0e7ff8
3f219eb3
3f7e483a
3d3eda3f
3f3b3886
3f5367bf
3f6a2372
3f6da368
3f63c6ff
3ebf4434
3d2e53c7
3f5f762f
3f470fd9
3dc6494c
3f47f172
3f5794be
3f455d7d
3ef825f7
3e9ccfb2
3f15a120
3f2723c0
3f4e1f9a
3e92f20c
3f0cd6fe
3f02da27
3f5860c7
3db362c8
3e46d548
3ea99622
3f52c473
3f662f7e
3edb9133
3f286796
3ee9065e
3f7f1385
3f1b464e
3e2b214d
3f340803
3ec70505
3e9006b5
3d3879a8
3e6ac220
3e4ff389
3f3db1a3
3f0571d5
3f0835d8
3f6a5cf8
3eca174a
3f3e5608
3f4e2948
3ec76116
3dc315a8
3ea50f9c
3d02e797
3e90b7ad
3f5cf4cf
3e9e7b64
3dbfee11
3f0c4069
3e830ca2
3eab0a18
3e1ce9e6
3d295d47
3f3fbf1c
3f26517d
3e6209c9
3ec14f49
3ecb2328
3f193526
3f4ff4f1
3da10c07
3eb49c89
3ee84efd
3ed30815
3ed0df9c
3f74c301
3f5b38d3
3ef89db9
3e6b1efb
3f797c05
3e99527a
3e00ff24
