3e763fb8
3f3ec318
3f269ef1
3e74d391
3dba2838
3efb60de
3f48baf2
3ecb2961
3eb2723f
3f481206
3e1ca7ee
3ec4c411
3f039970
3e1d3958
3f53fe13
3f33dbcd
3ea652d1
3e0083c4
3f3d91e8
3f1a0846
3ef5db72
3f70bf88
3d74f335
3f238bf1
3f1ae953
3d90b962
3ef1ef2f
3f16e6e2
3f58ee8d
3ed72f8d
3f4adc1c
3f106dd1
3f4c1a85
3f30fb44
3eca40c7
3f14d2bb
3d9ac9f1
3e48c3a6
3e6c12dc
3f200c2b
3f2e7e0a
3f7babef
3f1922e5
3ef716b0
3f1702bd
3e9e32bc
3dd51936
3e2199c6
3f7acd6a
3f071723
3f045358
3f3b88cd
3f3d4248
3ebffac3
3db1da6d
3f48784e
3f3d1a2a
3ef0bf67
3f3c88e2
3f460f4d
3e86a08e
3d21268b
3e8f120c
3f03d128
3f2ea492
3ec841b1
3e6dab5e
3f1ff121
3da17479
3f52e7ff
3f27c1c8
3c4e156a
3f01fd86
3e4f4330
3f4639f3
3f0734d8
3ea52d7e
3f7aecdf
3ee54ba0
3e483884
3f5673fe
3f3f8c22
3f7794b6
3f77b715
3f0a83c3
3e6b8639
3f6edbc0
3f70d742
3f17a180
3f05fe5c
3e4ee42a
3f716f56
3f7d6c92
3e80977d
3f55a447
3f2dbfdd
3f45c604
3f6177a9
3f2aaf0e
3f1ef51a
3ef63a4b
3f2ffad0
3dac023e
3f1b51b8
3f166d6a
3f36b767
3f7a0659
3f66a8d5
3f5fe825
3ea6614c
3f6b3dbe
3d4c40c2
3f4f9170
3f7dc718
3e98b913
3c73d5f0
3f4f4480
3f578fff
3e216f9d
3debf67e
3e8295fb
3dc9b35e
3f11755f
3f20dac2
3ec28145
3f170acd
3e7432d1
3d15f13f
3e09735c
3f7e395c
3f288684
3e782d12
3ec32072
3e52a1ae
3f479d76
3f063cf0
3f0f12e6
3e3d2c8d
3dc1e728
3e49173c
3f46c248
3f30c616
3dfa9bfb
3d85eea1
3f456935
3eb7e01f
3e2edc20
3f0e21ff
3ea00010
3e925203
3d829fd8
3f39ccb5
3f70780a
3f0e1367
3f182a87
3f1b408a
3e1fc846
3f58f939
3ed5ac05
3ec4db1e
3f120286
3f3b8f39
3f6a4b93
3eca0aac
3eaabd08
3c23ebaf
3c9666fa
3e681173
3f2ef1a4
3ede93b0
3f05933f
3f486bfc
3f36877e
3d72da02
3f7c4566
3c115895
3f57cfe3
3eec9fe2
3f2c9db8
3e2bd96a
3ec6292d
3e68a07d
3e1871a3
3f4e0083
3ec8ad29
3f0dbf17
3f75f14a
3f465d9a
3f3a3734
3edb764b
3e40b086
3f326816
3f38b62c
3f700a2d
3f1d7b95
3dd01d65
3f7cebe1
3f4b9aa3
3d4013ff
3f15d2c4
3f439946
3ea544e1
3f7c1757
3f37f71e
3ebb787f
3ef06701
3deff96c
3d4f6605
3f240778
3ea2bf44
3e7ccccf
3f522413
3f0c49db
3f610b49
3ea99613
3f1fddf3
3e99fbc5
3e089308
3e55944d
3f0954f9
3f60b1c6
3ebc3e2c
3f3a806a
3f4cd8b5
3f515f9c
3f18f1ce
3e27b014
3e816d2e
3eaec478
3e10e120
3f21252d
3eab6e4e
3c046a4d
3ebb3431
3ee6b9da
3e3920f1
3eed2236
3f21860c
3f56cafa
3f78696a
3f218244
3f6dfc11
3f06aaa0
3f0a8041
3eb9b286
3f7c8438
3ea1c527
3d78b3a7
3f26e401
3f74b572
3f16140f
3eb2f688
3f7b1b12
3f2afeb5
3efdf669
3f6f6161
3d9c1478
3f4d3218
3d8200f9
3e944c71
3eb2060b
3f7ec0ac
3f07a39e
3cda7554
3f153eab
3f1901f7
3e308d28
3f0bf454
3f79b419
3f567b1a
3f2f2eae
3f5080a4
3f703457
3f2d75ee
3d9fa8a8
3d4d551e
3e9d7e65
3f7629ca
3f11b142
3eb3d47c
3dd9cc68
3ed5e75c
3f1e667c
3f0826d1
3f205c4b
3f43b275
3f10120a
3f431e12
3f2acc5a
3e48adca
3f10b056
3e816858
3f7471c2
3e3f9790
3e9c4565
3ecd8b58
3eabb44d
3edfd4a2
3da1c330
3eb37e4c
3f513f07
3e84074b
3d044434
3e7a0922
3f5964ce
3ed228f5
3f22c05e
3f02ca13
3c1438c9
3ebbb70f
3f2b4505
3df0b236
3e66beb9
3f0da1d2
3ef90d34
3f202ea9
3f75433c
3ed0c916
3ee6302f
3ed989a9
3f19abaf
3e1ac930
3f0d185e
3f4fcd3e
3d75b12e
3e127df6
3cc68c6d
3f70495d
3e412233
3f52509c
3f525515
3f0c625f
3f4b1e1b
3dddea22
3ea2ee3d
3ee322c2
3f19185f
3f7747d4
3e78f620
3e0100f6
3ed85ca2
3d4b5295
3e05cb3c
3f4c01cb
3f115af5
3f75befa
3f54d0d3
3f4b5689
3ebed869
3e1310d9
3f331faf
3e5df42a
3e354b98
3f7d2218
3f2800ad
3f579f0f
3f4ef90d
3f38b995
3f6dc8b9
3e6b8395
3ea0bcb3
3f5d5d8d
3f4d669b
3d5e467a
3f0858d3
3f3b90f2
3f7e3b40
3f33fe35
3d967f8e
3f570946
3f57162c
3f3f13ee
3f53b77e
3ed45c88
3e157710
3f04a3ba
3e37cb2c
3cfb43e7
3e07f559
3ccd5fec
3e4ac6c4
3f72724d
3f389ffd
3f13f7e3
3cc702e4
3f535191
3f78b6aa
3f30ead1
3f199165
3da46964
3ec9c8ba
3d942c24
3ee3845f
3f6de449
3e181f32
3f34b70d
3f3a39e8
3eb79ff0
3e96c484
3ee99dbc
3dc66bf3
3d495a01
3f4a0278
3edb7271
3e0093d0
3e55e268
3f217be7
3f5da77a
3e5d23f7
3f2299c7
3f52cb1a
3f035e08
3f181644
3edec6c1
3def09c0
3f4719dd
3f45698f
3ea22643
3dd8abdb
3f1e3791
3e22ee2e
3f12bb8a
3f160291
3ef1532a
3f6a8d49
3ee92748
3f7b64a6
3eb8e945
3c6a47de
3eca5081
3f71c8fc
3e8a8a4e
3e0863b7
3f2ef95c
3ef27795
3f353d85
3f67124a
3f5faea6
3e0322bc
3f417302
3e0dd133
3c868cba
3f77e68b
3f2de547
3f0e1f02
3e546e27
3e933701
3e5f8e19
3f783180
3f29b3df
3ebc57b8
3e53fc12
3ed8dcd2
3eec2513
3f6833c7
3e60584a
3f548805
3f00922d
3e2c4855
3d3665b0
3f6464c4
3f69fe33
3f2eb4f6
3ee17cd3
3f5fd494
3ea67522
3f46505e
3f725e73
3efb1a03
3d9a80b9
3f26de2a
3dd1d722
3f736159
3e531ceb
3f20fb57
3f6b46c4
3ea70a49
3e58ac3e
3ef038e9
3f1fe6ce
3f0614ca
3ed849f5
3f12293c
3e95a29e
3f319658
3bff6ac4
3f6eb230
3e952052
3e7d7399
3f05b104
3eefea00
3ef02373
3f4c85f6
3f02db3b
3f5d8bb3
3f589149
3e1f028c
3eb637e6
3d88221a
3d25bf4a
3f6c7741
3c3da15d
3f23524d
3ea86a46
3ef4f629
3f672bb1
3e22f1df
3f35a716
3f145153
3dfbecf6
3f222cb4
3e64d469
3e7c85e7
3e01f0ac
3ed0845f
3f115151
3c9eb70c
3f0a60b9
3f7da7ef
3eca31c9
3ead9147
3f0765da
3f57b8af
3e97930f
3f3ae2b9
3ecbddcf
3f62f282
3f5506db
3f067c01
3e03c19b
3e87d9e1
3f0b0948
3f7a21ce
3f2e62a3
3ec9b293
3e525cf7
3f77b2f2
3f3188a3
3f15bd97
3e168ed7
3f1a8bab
3dd5430f
3f38425c
3dd004cd
3f763e9e
3f3d7682
3f2497dc
3e26f415
3f3c5f3d
3f65bfec
3d1c1968
3eb9fea5
3f17b403
3f54f6e2
3f5afb5d
3ef7a41c
3f247561
3ee531c3
3f6504a6
3f2b5967
3f068cf4
3f6bfa1c
3f2fcc73
3f59978c
3ea8de0c
3f5ed5a6
3f2162f8
3f31d0b1
3e9dce6f
3f52f328
3e6937af
3f3681a2
3e2b5abb
3f59712a
3f5ae3c1
3f62e1b5
3ddae5c7
3ebb69b5
3ec099b3
3f66d9be
3f2e45d3
3f3ca0c2
3f6b367c
3e7fa817
3f53d439
3ee9ed5f
3f280cf0
3eb2f0e3
3e940418
3f0bf70d
3f273392
3e2e9314
3f6b71e0
3eb9faeb
3f05f47e
3f5642a9
3e512435
3f761494
3eefd077
3eb00aab
3f182163
3e447f73
3f423f36
3f5af016
3e63d926
3d49e44e
3e0e72fa
3f47eb61
3c5b57e6
3ebd39a0
3f435846
3f71d907
3e232ae5
3e43ec06
3e06cdfb
3e6282db
3f09e4c4
3f3a9bdf
3f179818
3f29aa79
3f10231c
3df6def5
3f5b927d
3f27bd83
3d91154f
3f4ada9a
3e1bea99
3ef2087f
3f5f00c4
3df41b30
3d764097
3e4ca68c
3f19e9e8
3ea215ca
3f73ee21
3ed532ee
3e8616d0
3f27a7da
3f3b17eb
3f76c98b
3ec5de0f
3f6066a2
3f0c684d
3f6f45ad
3d927e26
3ef3bc68
3e4e685a
3e90bb06
3f62d08b
3f045efa
3f4b6085
3cb7e0ca
3eca8f2b
3f7d4f21
3e50bc14
3ca01c89
3da2c88a
3d9d88af
3e422d46
3eb50762
3f1e6fe3
3f605015
3e3c59bb
3f23edcc
3f3c5c8b
3ca1e809
3ef2e0d1
3e8674d1
3f131460
3e7ed692
3d072fe3
3ebf55da
3f04d269
3f74a127
3ebb804b
3f773e1a
3f37898a
3f59a6b6
3f0acaa0
3f0b745e
3e28f3b1
3d5ebd81
3e815823
3f0b761d
3f059234
3f336336
3e02d029
3f1196a4
3e556cdd
3f2d0743
3f65f54c
3f0f7200
3f6c091b
3cb4d852
3ebdccb2
3ee2f77d
3ec11cf0
3d2267e6
3f0b35b3
3f1cdd34
3eb6c486
3f685870
3ef4afec
3f63cb75
3edac004
3ef88fb2
3f46409c
3f029a7f
3ebabfb1
3e77bc8b
3f6a4cf5
3f0d22f4
3f35b872
3e08c85c
3e8c6b51
3eabea1c
3f3ee029
3f771e80
3f35bd6f
3f29037b
3eda7e4d
3f160eb2
3f187bd6
3f2734d4
3e816f31
3f0dd56e
3f07afe8
3c400913
3db6282e
3f052a9e
3e874994
3cd92b30
3d5b1275
3e900f9d
3e82457f
3eaef0cf
3f0fa468
3f108351
3edeefad
3f7f8f15
3ecbf9a3
3f73257d
3ef4532b
3f78413d
3f329ded
3e6d1304
3f5a3deb
3f77d528
3f0703a3
3f47e04c
3e7e1a79
3ed9f3f5
3f798b5b
3f314da6
3e856feb
3e7bfdb0
3f10ee49
3f1d96d6
3f5c2a77
3e9d5e21
3efd2696
3df46314
3f0228ad
3c748216
3f47b87d
3f11b313
3f62cc6c
3f1be1b4
3c47fe8b
3e982841
3ef09c6b
3f24181a
3f29dfcf
3d143c67
3f02b3d3
3ed0cfa3
3ee6f72f
3ee8f46e
3ed927c2
3e33f8cb
3f1216e5
3e81a5d2
3f5c2f4e
3efc54e6
3eddac5e
3ce716c3
3c261781
3de09164
3f116ebd
3f6a0f3b
3f7797d6
3f6f4fc6
3f7da1df
3f2d51fd
3ec532eb
3f0a9192
3eb28169
3f7d3b16
3e9864a8
3f1d1b7b
3e390be9
3f46a879
3f6c8ff8
3e554448
3f4fc53b
3f403cff
3e5557fd
3f31aa77
3e25b3ac
3f663e29
3f33d383
3f2e1ce3
3ea051d4
3f51c380
3ee8315d
3f6bf6f8
3f7f2495
3e79be0b
3f5da8cb
3dd64a09
3f0e7131
3d6ad8a1
3e592bfd
3f5a7cb4
3f177d12
3f711917
3f750b67
3e2f1a46
3f060819
3e6c8605
3d9709e8
3f7d6b77
3e848cc4
3f74c408
3ed63d85
3f04eb01
3f12ba67
3f22f002
3f735c3d
3f3aa5f8
3e1c95e6
3f5e9353
3d680d9d
3d9508f9
3d3f372f
3f389d41
3ea82a4e
3f004fe2
3e3fc3a9
3f58493d
3e6f9a42
3f6b3c5d
3eaa7ada
3e1c82f6
3dd97f85
3dadfe2c
3f70194b
3f172cc6
3f72180c
3f7ad0a6
3e5ada8b
3e9fb4ff
3ec96a73
3f655297
3e8fa756
3e6f41fc
3cc9274a
3f0c107e
3dde7434
3f36122e
3f251beb
3f4aebfb
3f24ba1e
3f7ac522
3f374bc0
3f489808
3ec8424a
3e8917f0
3dfe88ab
3f1b59c5
3ec63507
3e93f78d
3ee69a65
3ed282b9
3f1b715d
3f093ad1
3f003cef
3e4af8f2
3f7a6ca8
3d9bc139
3e9cacef
3e18fcc0
3df098ab
3f45fb69
3f2e6af5
3e890a67
3f7eae25
3e27f691
3e3da89e
3eb25b30
3e00ccb0
3f579e07
3f5d4359
3f1c10ee
3e80c4ff
3f0291fa
3f14ce3c
3df93b7c
3f2c092f
3f3a58a5
3f35a51a
3f3e5bbd
3f0943b2
3f2807a2
3ea27ea4
3f4724b0
3f566467
3e5ddd2e
3ef151c6
3df96d9b
3e9f1003
3f7196f3
3d0422e2
3dd1b758
3f3ae8bf
3f6fb337
3f0867a9
3f767e59
3f27d46d
3dfc2982
3f6380b9
3f559041
3eda9a73
3f64de07
3e25ac41
3e20918b
3f103ef9
3dd6e3f7
3f27274d
3e5eb17d
3f6d155b
3f416391
3ed8f94a
3f2a0483
3e510484
3f1ac4b0
3f053424
3f6a3e17
3e263a07
3f736997
3f1956ce
3efa656a
3d2bbff3
3ef8b8b9
3e922ad8
3f45a2ac
3f262293
3eeadbbc
3ec63724
3f181bdf
3da25707
3ec0e0ae
3f4e34d7
3da0685a
3e12acb3
3f77b04e
3f58883b
3f337d52
3e14f289
3f39ca44
3f51d9dc
3f43b9ad
3f1a3e3f
3f647ddd
3e9baf98
3e12cff2
3f2fe30e
3f2c96d9
3f7c941e
3f01b948
3eaab563
3ed4fc23
3e175d35
3b287243
3eda2208
3ed3dbca
3ebb5d29
3e3c6986
3e7ada71
3f24ba2b
3d8a269a
3f247317
3f27b215
3f346ae2
3eb47368
3e42fc9b
3f594f1d
3f7a3e3d
3f4e6f74
3f155c73
3f44947f
3edcb4e6
3f431f89
3e60cca7
3f7f7513
3d249c13
3c8ce09f
3ecf7820
3f6ce5e6
3c32c4d8
3f2b3b3b
3f6c510a
3e8fba5f
3f7d36a6
3f6eb5fd
3f49e967
3e98ec98
3ed0adaf
3f2f3e92
3f09fe6b
3ebdee41
3e995d58
3f50b038
3f7c00d5
3d512033
3f49522f
3f4927a5
3dac7e25
3f3880d8
3e36f28a
3f7c8ebc
3ef4b3d4
3d99355b
3dbed389
3f69d9a6
3d2476cd
3f72e9a5
3f7e8b0a
3f278d8e
3e8603aa
3f6d7631
3f09e696
3e460bb7
3eab0e96
3f0cc085
3f5acbeb
3ee1d0f3
3f4096a8
3f3e3707
3e641768
3e0e90e1
3e8af6dd
3f51c354
3ec0b654
3f1793e8
3f4d0168
