3e45b323
3f1b66b1
3f478611
3efa0662
3ec75011
3f5c040a
3e8841e2
3f10c230
3f69e10a
3eabc65e
3f7704f3
3f1f7f9c
3f1750ed
3e00568f
3ede1545
3e1c465e
3f7d00ae
3f4fc4b3
3f63d8a4
3af54be8
3f285893
3e84c565
3f4b428c
3db7b328
3f66ec80
3e963245
3f7b6fa9
3e6c472c
3e87ff61
3dc7f24e
3e379e54
3e40df17
3d9e78e7
3ebb8ef3
3f091d8b
3e8041e9
3ea645eb
3eee2267
3f10e0d8
3e35d27d
3e058d49
3e7f6d4d
3e0e31a7
3f2d6b52
3ed370a7
3c44c213
3f3c54b0
3ed76a08
3dbdf6a5
3e36f52b
3da57532
3c8850d6
3f1a7345
3e771bd6
3f55d63d
3f4da1fd
3f526ccf
3f134694
3f0abc3b
3f7d0117
3e3686b9
3e8b9f98
3f54f106
3f084dd5
3dcd3331
3f7bec2b
3f1877b9
3ed17911
3f446028
3f176945
3f7552a7
3f350d49
3e346d51
3f06eade
3e96d085
3eee515f
3f51dc5e
3f7e2a4c
3e34e9ae
3e8e4d92
3f175f69
3d02cf6a
3e63d802
3f68494a
3e4249b3
3ed8f1cf
3f6a6916
3e1e92ba
3eae6cdd
3f253fa7
3f59e7be
3eab97c8
3f56e411
3ed1f39a
3f3e3e3c
3f06fa6f
3e525960
3f11d655
3e8cf046
