3e034d3c
3f18ad8d
3f27ad27
3f37108f
3e81e3a3
3f334d50
3e994a97
3f4d7c67
3ec77988
3e2d4fe6
3e551e80
3f0e4d98
3f0a145e
3eac0182
3e43f6df
3ee34202
3edd3e36
3f19b039
3f4bb907
3f03486b
3f259f4e
3f7ea9f9
3c88ee86
3f4f6765
3c27b3a1
3ef0b049
3f7e47ee
3f1afd49
3ecef819
3f12a4b5
3dd60dc6
3f004fe9
3f64e45c
3da801ed
3f099b4c
3e65b0c6
3f172fe2
3f2b7c41
3f2a4973
3f13eea0
3e1fe6ea
3f2cfa99
3ef13f3a
3f48acc3
3f7d4db1
3ecda036
3ea56e76
3f7b6824
3f125d8c
3ebd109a
3f179eab
3e1726d8
3f079164
3e80fdb9
3e2e1660
3f233a78
3f7d2495
3ef2a3de
3f261310
3f73e955
3f4da344
3eb04c8d
3ee2bc44
3dc45d9f
3f3a9283
3effa4cf
3ea4c46d
3df8304a
3f282e3d
3d2e829d
3e3aacad
3e3221c3
3c64147e
3f0a47f6
3e44e7e1
3f185d1b
3e4be220
3f29cdb7
3f58f89d
3e0d649d
3dc1f8af
3f139557
3f67af22
3efb02b8
3d323447
3f085d3b
3dccbce9
3e904ae8
3e6d0c6c
3dd135a7
3e45f8f3
3f761b15
3d305600
3f36ba90
3f6cd3d8
3f779386
3f4ce74d
3f5d4ac1
3f601d5d
