3f68ebf6
3edaed0f
3d9b06b4
3ed61f23
3ea5b65c
3f18f7e2
3f0e4ec6
3d2de985
3f240844
3f61bad9
3dfd4a79
3f73277d
3f057959
3f2b7dfa
3f0f6c59
3d6cee07
3f1735ad
3e8c5fb9
3f20be3b
3f04f3c1
3e2232cb
3f08fa5a
3d45ff3c
3f501fa9
3c8cb2e7
3dbf8d44
3f46d6a1
3b8135e8
3ea3bbf3
3f797b6b
3d193479
3f2b34cb
3f6fb9e7
3ef87622
3eaf1316
3f6713fb
3e889ad7
3e7b0e6e
3e3c29ab
3e9c7f8e
3e1562d3
3dfe518c
3f3d1d06
3f3b5753
3f735444
3f047eed
3f57337d
3d9def46
3f2f6c9c
3f521c68
3f655049
3f4b90a8
3f65f8d9
3e876031
3e49feb3
3df3fe54
3b3e2ddc
3f3e68df
3f01ad55
3f45d630
3dab3957
3c6118a9
3f1af465
3f4379d9
3f43cae1
3eb7cfbe
3f4f5862
3f79e488
3f2a7ba6
3d5563d7
3d4eef29
3f1daddb
3f78b9ee
3dcee45f
3f2d8d15
3f64ca33
3f2a820b
3f3baa8f
3f498fde
3d13da29
3d64f800
3e8a752c
3f33588b
3ec9be1e
3f0806bf
3f20ea7d
3c03cbd4
3f39c9e7
3f0b9b30
3ed64ada
3f611de4
3f7723a7
3f1910f1
3f06991f
3f1c930a
3f38af2e
