3e3636e2
3ee75bd9
3d5618c1
3f3eb4ac
3e87d440
3d415ce7
3f710550
3f4551b6
3f3309e0
3e990cf2
3f2daa09
3e9add3e
3f76b54c
3e24381f
3edac5c5
3efeee2d
3cb4f5cd
3e689337
3f662cb6
3e219841
3da0198b
3ec5d12a
3e1d4589
3eee330d
3f300c38
3ea01f74
3f4aec15
3f091dd7
3f6c8b2d
3dd6014b
3f0d7659
3f03a624
3f2dc082
3e1a4a3e
3f65227a
3e935e94
3e3d42bb
3f64a43f
3f3d6c40
3e683931
3f7f4133
3eee8833
3ee1f3ef
3ecb3641
3e49166d
3f0a3ee3
3f7d5668
3f7cb0b9
3e8fe058
3e3d818c
3f0b2df0
3f5d2308
3e2bb390
3e6a606c
3f185c75
3f438ca3
3ef317b0
3f08549b
3eb7a3f3
3f61babb
3f47189a
3f2ff441
3db57b34
3f3f43e8
3f3b914f
3cbfb54d
3f717203
3ee27c99
3f71308b
3f059bd0
3d38f91c
3df63565
3eb57921
3e982903
3f1fb41f