3ea48a81
3f67d0b5
3f3a6197
3bf38fa5
3d2e26e9
3f01442e
3e236781
3f6a59f6
3f50598e
3e871921
3ea5437c
3f446fae
3e96d6b0
3f3e7a33
3ecc2184
3ee17e8d
3f48c4cf
3f553eb1
3e284afd
3f161ef9
3efe6925
3ef3d6e3
3e51ddfd
3ea59e81
3f376a7e
3d303564
3f4f3a78
3e14e1e4
3ed0614a
3f5fbd7f
3eb851d8
3cb3a62a
3d1c94a0
3e857580
3f69ae1c
3f422a62
3e7fee00
3f5756b7
3e571af3
3ef3833c
3f2220fc
3e06eccd
3ecb5a9e
3f194069
3f31c62e
3f191215
3de9a3a1
3efbfff5
3d7b3a78
3f3f4416
3f1e9933
3f6da040
3f29c7e8
3f3789ff
3f0fb25c
3efcaf41
3e83d2bd
3f2716e1
3e9063e6
3e9d5d41
3f760421
3f656d32
3f18967e
3f7678d5
3ecd3f48
3f109c17
3d2c0b5c
3de38e2a
3e1b502a
3f6356a1
3f737404
3f2699b5