3f42e588
bb8b95d1
bfe9817d
3f525f8e
bb96ab6d
bffc0c65
3f576537
bb9a4437
c001085f
3f33d246
bb80c9cf
bfd771b5
3eb7185c
bb03220d
bf5b5dd2
3f30f442
bb7d7837
bfd40248
3f69f66c
bba79078
c00c27c9
3f37b935
bb839540
bfdc1e89
3f3e2fe5
bb883657
bfe3dd05
3f5ee865
bb9fa59a
c0058875
3f0dda03
bb4b304a
bfa9f3da
3ebbd68d
bb0687a8
bf610c8c
3f39e13d
bb85209d
bfdeb3ec
3f2fccf9
bb7bd140
bfd2a081
3f6e75a0
bbaac8f6
c00ed96a
3f2802e4
bb70a8eb
bfc94b64
3ec3ab49
bb0c2373
bf6a6e6c
3f36d518
bb82f1df
bfdb0d3a
