be1d8b7e
be8cd0f8
be8bcc45
be214212
3c35afe2
be8d949a
be8553d4
be1de605
bec25233
be500ba7
be870b08
3d3fd04f
be28e3e7
beb75c48
be62141f
bc5958be
3c1519ed
be083d7b
bf732054
bd928b0c
be02fb95
be020917
bd95ff3f
3ba8ffd9
be03b18e
bdf808a6
bd92df41
be34c04e
bdc18467
bdfb39b6
3cb26b3d
bd9d18a3
be2a8e55
bdd24a7f
bbca2b38
3b8ab06e
bd7d73ce
bee225f0
bd857939
bdee9a0e
bdece052
bd889e90
3b99ed4f
bdefe58a
bde1e99f
bd85c5eb
be24a173
bdb04215
bde4d1d0
3ca281a3
bd8f15de
be1b5841
bdbf8933
bbb8235e
3b7ca3d9
bd66d910
becdfa99
bdfd2bcc
be6249e1
be60a6f1
be0191ae
3c11fbc6
be638442
be564115
bdfdbd47
be9c2282
be272988
be5902df
3d1a1ec2
be07b38f
be9353fd
be35a6d0
bc2ea2b6
3bef9a36
bddaef53
bf435967
be825adc
bee906e1
bee75778
be856d62
3c96549c
beea4a9e
bedca258
be82a5c4
bf20c8ba
beac23cf
bedf7926
3d9eb59e
be8bbe03
bf17b712
bebb0f8b
bcb3d5f6
3c76bcb4
be617444
bfc92a8d
bd568ce6
bdbfc4cd
bdbe61c6
bd5b9b6f
3b776d96
bdc0cf39
bdb591fa
bd570830
be045119
bd8da979
bdb7e819
3c829c05
bd66003b
bdf9b4ff
bd99f0e9
bb93fecd
3b4b0d33
bd39896d
bea58c94
be548b22
bebdf996
bebc99e1
be598d8e
3c751d17
bebf0184
beb3df2f
be550544
bf03143f
be8c563e
beb62fb5
3d816343
be63d977
bef75f0a
be988047
bc929c68
3c4926f8
be37cd23
bfa40026
be487479
beb32b88
beb1dfd4
be4d2df6
3c672c35
beb42473
bea9a43a
be48e7a9
bef73f71
be845aec
beabd30e
3d740eb9
be56e3f4
bee94d49
be8fd3d9
bc8a45bc
3c3db62b
be2d58f8
bf9aac48
be0f40c5
be800abe
be7e3b63
be12a11e
3c253481
be80bca1
be72770a
be0f9316
beb0b169
be3d2c23
be7595c2
3d2e69c0
be1991b4
bea6ba0a
be4d91d2
bc45a13a
3c07934b
bdf7c30d
bf5d121f
bde83a85
be4f91e1
be4e1199
bdedb3b8
3c05e85b
be50b240
be4487ed
bde8bff7
be8f381f
be19559e
be470f55
3d0d5f08
bdf8f3c2
be872418
be26a011
bc20308a
3bdbc845
bdc8d30c
bf333097
be811b53
bee6cbaa
bee52062
be842651
3c94e41b
bee80c4e
beda8582
be816583
bf1f3e9a
beaa7dd9
bedd555a
3d9d3094
be8a6777
bf16432d
beb94502
bcb21d22
3c745fe1
be5f4b9d
bfc73d70
be48ea10
beb394a2
beb2482c
be4da652
3c67b3d0
beb48e1f
beaa07be
be495d84
bef7d07b
be84a890
beac37d9
3d749de3
be576202
bee9d625
be902837
bc8a96d9
3c3e2575
be2dbea8
bf9b0704
be63dcf8
becbaafe
beca31ef
be693bd4
3c8363f4
beccc5f1
bec0d62a
be645fe8
bf0c86e9
be9673bb
bec35166
3d8ab6b7
be7445ba
bf0499c2
bea37e38
bc9d2da9
3c57a69d
be450ca0
bfafd247
be780ff5
beddb8e9
bedc1e6d
be7de8b1
3c8f09a6
bedeecf2
bed1ee48
be789e80
bf18fbf2
bea3ca00
bed4a1d4
3d970299
be84f68c
bf105aeb
beb1fc6e
bcab1c93
3c6ac477
be568458
bfbf6843
be9e3983
bf0d6c83
bf0c66b0
bea1f432
3cb67893
bf0e30fd
bf05e71a
be9e946f
bf4328d8
bed0f175
bf07a033
3dc0a42f
bea99e75
bf3826d2
bee30dd9
bcda48d3
3c95be9f
be88d3f8
bff42ce2
bdb00d18
be1d5b85
be1c3832
bdb43356
3bcb077b
be1e3622
be14fd2e
bdb07242
be5925b7
bde87be2
be16e7fa
3cd6586d
bdbcbaad
be4ce633
bdfca2a3
bbf2e0ad
3ba69d9e
bd983e6b
bf07d7bf
bd47e166
bdb2a813
bdb15d52
bd4c976b
3b668298
bdb3a047
bda927c3
bd485442
bdf68a09
bd83f9d0
bdab54fd
3c735ba8
bd564649
bde8a21d
bd8f6a52
bb89e049
3b3d2afa
bd2cd9c8
be9a3acd
be3e24c7
bea9f420
bea8b97c
be42a00d
3c5b4801
beaae03d
bea0ea4d
be3e920a
beea878e
be7b1801
bea2fc62
3d6780d8
be4bd62a
bedd4d0c
be886dda
bc8328e4
3c33f3f3
be246e3d
bf92b778
