00000000
00000000
00000000
00000000
00000000
00000000
00000000
00000000
00000000
00000000
00000000
00000000
00000000
00000000
00000000
00000000
00000000
00000000
00000000
c146786a
c126020d
c0f5f834
c1660171
c11663a3
c13915bf
c14ca31c
c11b9fdd
c11ee516
c1592df2
c14895d2
c134186f
c169622f
c134ee24
c104e5da
c13fd2c5
c13484a3
c15beadf
c1360c76
00000000
00000000
00000000
00000000
00000000
00000000
00000000
00000000
00000000
00000000
00000000
00000000
00000000
00000000
00000000
00000000
00000000
00000000
00000000
