00000000
00000000
00000000
00000000
00000000
00000000
00000000
00000000
00000000
00000000
00000000
00000000
00000000
00000000
00000000
00000000
00000000
00000000
00000000
407e9fd1
4053facf
401b356a
40966dff
403f4bb0
406ee779
4084cd42
404cd27f
404e1ea0
408bcbc8
408171a1
406962ac
409a6afa
40697b61
4026f693
4076bb00
406c09e2
40914d20
407d359b
00000000
00000000
00000000
00000000
00000000
00000000
00000000
00000000
00000000
00000000
00000000
00000000
00000000
00000000
00000000
00000000
00000000
00000000
00000000
