00000000
00000000
00000000
00000000
00000000
00000000
00000000
00000000
00000000
00000000
00000000
00000000
00000000
00000000
00000000
00000000
00000000
00000000
00000000
c14ee73f
c12daa52
c101f166
c16ce0ad
c11d20c0
c1404eba
c15368c3
c11f6851
c12477ba
c1621747
c14ffd17
c13a0fe5
c16e1922
c13c285e
c10bee8c
c147d5cb
c139fa51
c160c6c3
c134153f
00000000
00000000
00000000
00000000
00000000
00000000
00000000
00000000
00000000
00000000
00000000
00000000
00000000
00000000
00000000
00000000
00000000
00000000
00000000
