3d07d825
3dac5a9d
3dc26504
3d3fb285
bbb71440
3dae2b0d
3da440c3
3d15d0ba
3e041735
3d7351e0
3db8817b
bcd625ec
3d605a47
3df82b5f
3d810c11
bbf7a396
bb878660
3d106beb
3ea95084
3c7ad0b7
3d1f1cc1
3d3375a9
3cb0f837
bb290373
3d20c982
3d17a23b
3c8a4e28
3d73e27e
3ce0a042
3d2a549f
bc45b20e
3ccf1db5
3d651a60
3cee43ef
bb649d05
bafa39bd
3c85536f
3e1c4e70
3c65371d
3d1168e2
3d240133
3ca1baa7
bb1a754a
3d12f0b6
3d0a933c
3c7cca04
3d5ee1af
3ccd4809
3d1ba96c
bc34ab8e
3cbd4785
3d515f73
3cd9bf03
bb50ece4
bae4ad23
3c73b020
3e0ed86d
3cd95224
3d89dd36
3d9b7e82
3d195630
bb92716a
3d8b50b5
3d83625b
3cefabe1
3dd350d9
3d42a102
3d93958f
bcab4b79
3d337512
3dc68212
3d4e7266
bbc61575
bb58cf53
3ce70ae4
3e876ed2
3d61f7b4
3e0f5974
3e21ae53
3d9f7008
bc18450a
3e10dbbb
3e089c99
3d793519
3e5bb940
3dca5f71
3e1974cf
bd321c3b
3dba98f7
3e4e6804
3dd6a934
bc4df714
bbe16faf
3d703c39
3f0cd24c
3c35e7cb
3ce6cb65
3d02277d
3c80592e
baf52801
3ce9394f
3cdbf25b
3c489d19
3d30e107
3ca2e957
3cf71113
bc0f6146
3c963657
3d262892
3caccdb3
bb25cda8
bab57a4c
3c416418
3de2b978
3d37a9b9
3de90640
3e03696b
3d8196a4
bbf78661
3deb7a2c
3dde1261
3d4a8d4d
3e329686
3da47c4b
3df9742d
bd10c3ea
3d97a9e2
3e27c38d
3dae791e
bc2767c2
bbb73b2b
3d43426f
3ee4ea41
3d2d72f5
3ddc10bc
3df83514
3d74c371
bbe9c26d
3dde61bd
3dd1b8cb
3d3f499e
3e28a802
3d9b568d
3deb94c2
bd08b6ed
3d8f3aaf
3e1e6f23
3da4c52f
bc1e1873
bbad0a8d
3d386692
3ed82f3f
3cf74cd6
3d9ce1e3
3db0f1ca
3d2e7d48
bba6a50f
3d9e88a2
3d958232
3d085df2
3df0777a
3d5d7a57
3da7f181
bcc2ecc2
3d4c369d
3de1e465
3d6aed15
bbe168cc
bb76b7fa
3d037516
3e9a1da3
3cc74ea1
3d7cdf85
3d8e9af3
3d0ca06a
bb864dec
3d7f88ed
3d70fcd1
3cdbce19
3dc1ccc4
3d327f05
3d8759da
bc9d18a1
3d249505
3db60dc4
3d3d55a2
bbb5aa28
bb46d6a9
3cd3e436
3e7869eb
3d5f7387
3e0dc0cd
3e1fe16a
3d9da984
bc1692f5
3e0f3ec7
3e071727
3d766ead
3e5946e0
3dc81e87
3e17bf58
bd30207c
3db88507
3e4c1b9b
3dd44543
bc4babed
bbdeed06
3d6d8f60
3f0b40da
3d2db42d
3ddc637b
3df89268
3d751f7a
bbea1a52
3ddeb55b
3dd207a7
3d3f918b
3e28e76d
3d9b90f5
3debed57
bd08ea55
3d8f708a
3e1eaab6
3da50324
bc1e53e5
bbad4b9e
3d38abe8
3ed88088
3d44c757
3df9aa43
3e0ccbcf
3d8ad7b3
bc0499be
3dfc4b07
3dedee29
3d59043c
3e3f575d
3db03b51
3e05a245
bd1b1a6d
3da27e81
3e33be82
3dbaeebb
bc335c2a
bbc450e4
3d51340d
3ef54325
3d56be7d
3e083abd
3e19a686
3d9784c1
bc10b4e8
3e09a9d5
3e01d38e
3d6cd463
3e50cf6d
3dc0523c
3e11d596
bd294387
3db15459
3e442786
3dcbffc1
bc43bc33
bbd63d39
3d644d97
3f05d3bb
3d894e25
3e2e3521
3e447c36
3dc1c24b
bc390c4b
3e300a8f
3e2604f9
3d976d31
3e8582df
3df5efc5
3e3a7d74
bd587381
3de2c3f4
3e7ad69f
3e026f5a
bc7a4d60
bc08fb7f
3d91f988
3f2b22aa
3c96bd8a
3d3f40e5
3d57b604
3cd4b7cf
bb4b279b
3d414443
3d3643a2
3ca63e50
3d92933a
3d070026
3d4cbce3
bc6da171
3cf8f442
3d89b0f7
3d0f32a6
bb8965a1
bb1662cd
3ca04217
3e3be17a
3c2931a9
3cd6aaae
3cf21e49
3c6ec247
bae4065e
3cd8ed22
3ccc93b2
3c3a984a
3d2484d0
3c9786fe
3ce5cd43
bc055c54
3c8bb72c
3d1a8c23
3ca0ba65
bb1a3793
baa8cbd1
3c33e07f
3dd2e190
3d2409a9
3dd01fea
3deabd59
3d677b8d
bbdd1363
3dd250bd
3dc657a6
3d34e888
3e1f8149
3d92e8d3
3ddecc6b
bd014be3
3d877527
3e15d667
3d9bd471
bc15846c
bba3a6eb
3d2e6526
3ecc7454
