be0856dc
be8a031e
be90960c
be1c800c
3c5bc3a1
be8b028f
be831e68
be0d19c8
bec6c0b6
be48b471
be8a7c68
3d790e4c
be2b997a
bebb2494
be5803bf
3bbb6bf5
3c29f4fe
bdfd5abf
bf7ab04c
bd80cf9c
be026439
be089a39
bd93dbcf
3bcfa11c
be03558f
bdf7c1e7
bd854f3a
be3bc734
bdbd9f57
be02d6d0
3ceb4db8
bda21fcc
be30cf2f
bdcc163b
3b3112a0
3ba09288
bd6f5d68
beecd8a4
bd69290f
bdec0572
bdf74380
bd85d1ba
3bbbea26
bdedba4a
bde03b87
bd714d9a
be29f2c7
bdab9e15
bdecd4de
3cd4f611
bd92baf4
be200562
bdb8b561
3b20426b
3b915369
bd58a308
bed65b7d
bddcef3c
be5fa538
be6a4c5c
bdfd9ad1
3c320fae
be614328
be54798b
bde4a679
bea1097a
be229e60
be6069c4
3d49cb62
be0b0953
be97a157
be2f05f3
3b97db2e
3c09b4a2
bdcd4703
bf4b1e11
be5f3b46
bee1f879
beecbbf8
be801ee7
3cb3e99b
bee39ab6
bed6af11
be67070c
bf22b618
bea44f34
bee2bf10
3dcbe47b
be8c7b62
bf1934eb
beb0d7ca
3c196f5b
3c8b2326
be4f6960
bfcd3aae
bd3ff734
bdc25231
bdcb93c1
bd5c5a27
3b9ab6c3
bdc3b9db
bdb89d7b
bd46ab73
be0bec01
bd8d4bd0
bdc2fcf8
3caf55d2
bd719cad
be03bfa0
bd981301
3b03f1e0
3b6f4ca2
bd325c8a
beb07c18
be371226
beb95132
bec224f6
be522462
3c938b93
bebaa831
beb00f9c
be3d76de
bf057048
be86bfca
beb9f40f
3da73607
be666ab9
befb49b3
be910722
3bfba98c
3c64361d
be2a18da
bfa84eab
be2c250b
beae41c5
beb68eab
be4599a9
3c8abd42
beaf844c
bea58d9c
be322814
befaf2fe
be7d69f6
beaedae9
3d9d3b3e
be58aa3a
beec4a51
be885f47
3beca472
3c569750
be1ff1f8
bf9e4322
bdf756e8
be7a5fd4
be832674
be0df507
3c47579b
be7c2f3d
be6dde62
bdfffa36
beb44889
be360dd4
be7b3bde
3d61e973
be1ba741
bea9c098
be43f0ed
3baa0157
3c1a29d8
bde5cfa4
bf63649b
bdcade4d
be4d5b89
be5723ac
bde8ddfa
3c23803b
be4ed7a0
be4319b3
bdd1f404
be93de68
be155232
be4e1002
3d394b1e
bdff559b
be8b3b30
be20b619
3b8b704b
3bfce3f0
bdbc7dd5
bf3a821a
be5dc5d8
bee07e76
beeb2ff3
be7e9129
3cb2bca4
bee21df8
bed547f0
be658493
bf21a5e7
bea33c57
bee143c1
3dca8f67
be8b9061
bf1834a1
beafaff6
3c186eb0
3c8a3a65
be4e0e69
bfcbe35e
be2ce0a9
beaeffb1
beb755a2
be467106
3c8b5479
beb04397
bea6420b
be32ea40
befc0481
be7e7e28
beaf997c
3d9de69c
be59965e
beed4bd9
be88f3e9
3beda65c
3c578132
be20a04b
bf9eef9f
be446c95
bec6d593
bed04e2b
be617850
3c9e4ea6
bec84597
bebce727
be4b48b0
bf0f2bf2
be9093ed
bec78451
3db36851
be77393c
bf06cef7
be9b9b33
3c070263
3c74db72
be368107
bfb4956d
be54e588
bed78244
bee1c631
be7460d5
3cab9548
bed91125
beccbea2
be5c54e8
bf1b2da3
be9cb3ce
bed83faa
3dc273f2
be85fa64
bf121d1d
bea8a7d8
3c1254d8
3c84b217
be45cf22
bfc3ba4e
be872627
bf08ceac
bf0f52e8
be9b2248
3cd9d879
bf09cbe2
bf01f95e
be8bde6f
bf450484
bec6f3e1
bf0946e7
3df6e1ad
beaa19f7
bf398254
bed620f9
3c39c916
3ca87926
be7b2485
bff88007
bd9a8687
be1c6be9
be23df53
bdb1602a
3bf9140f
be1d8d6d
be149bce
bd9fec0b
be6143a7
bde37a0b
be1cf561
3d0d237c
bdc27d33
be541b12
bdf4d424
3b546bf9
3bc0a0a0
bd8f931b
bf0e105d
bd3336c2
bdb569b1
bdbe0dd9
bd4db6fc
3b906fcb
bdb6b976
bdac5a08
bd3978ff
be02a095
bd83e905
bdb6091f
3ca3b02e
bd618ff9
bdf5fe62
bd8df8ed
3af65c36
3b5f6742
bd26836f
bea4c2e8
be243e96
bea6427f
beae2de1
be3c8823
3c845f45
bea77639
be9df498
be29fafe
beef6eb2
be71c8b5
bea6d49d
3d9603ff
be4eb8b8
bee1723e
be821d19
3be1c83c
3c4cbe2c
be189ad7
bf96ffc6
