3f63aa0e
bbf8a8b0
bff052e6
3f75d499
bc06400c
c001c005
3f7be39e
bc098f13
c004f2a7
3f51d9e8
bbe53404
bfdd852e
3ed606d0
bb69c37e
bf61ed85
3f4ee8c0
bbe1fd67
bfda6a24
3f88945c
bc152cb0
c0102c98
3f56a9b2
bbea7565
bfe29976
3f5e1761
bbf29273
bfea70e4
3f826483
bc0e6ac8
c009a4ac
3f2584a7
bbb4c829
bfaeb8d6
3edafca3
bb6f2e6c
bf6729f5
3f590fc0
bbed1414
bfe521a9
3f4da02a
bbe09684
bfd90f48
3f8b15fa
bc17e97a
c012d1e4
3ec4953a
bb56b61a
bf4f839f
3ee45289
bb7960b5
bf7104bf
3f557ea0
bbe92ebf
bfe15dc3
