beb1a44e
3b522091
3f22c1dd
bebfb280
3b62c0c2
3f2fa291
bec4314d
3b681202
3f33c0f1
bea3f830
3b41f461
3f163b05
be26d04e
3ac551a6
3e98d621
bea1331c
3b3eada2
3f13b15b
bed549e3
3b7c4af0
3f436ad1
bea76d97
3b460bb2
3f19663c
bead59df
3b4d0d43
3f1ed378
becb0198
3b702148
3f39ff15
be815a76
3b19021c
3eed07a1
be2b5e0e
3acab493
3e9d0233
bea96f0a
3b486b0a
3f1b3caa
bea01bfc
3b3d6377
3f12b19e
bed97a8e
3b809fe2
3f47419b
be1901a5
3ab4fc9b
3e8c2fa3
be326bf1
3ad30cb5
3ea378c6
bea6a9e8
3b45243a
3f18b2f2
