3f29edb1
3f4b9577
3e5937a1
3f0e18ae
3e27943f
3f611960
3f6f9d73
3ee4aa0e
3e43ac55
3f393c1f
3e32202c
3d19264d
3eff1428
3ebba304
3f59bb1f
3f0c2566
3e81ab5d
3f4edced
3ed022a3
3eb63c64
3f4e8af2
3f6ee865
3f70a403
3f74076f
3f405e9d
3f2a947f
3dcc973e
3e3545cf
3f5d8e8b
3e0df2c7
3f14dc3f
3f1b1799
3e200c11
3f511f7f
3f3c4d85
3e9b2145
3e2c3983
3e205034
3f7035a5
3de71df7
3e437e49
3c6a6c81
3d5544ff
3ee0ca48
3ec3eed7
3f7638e5
3c9bf46d
3f12801f
3ea1761e
3ee7ff12
3da2193e
3e5f1bfe
3dc3f186
3f32c2fc
3f40f23e
3e6d2086
3eee186d
3f1dd4b1
3e271a45
3ef292cf
3e99de4c
3f6c939d
3f69567d
3f7de577
3eab39fe
3f249bbc
3f64b3d4
3d32bddd
3ed7f26b
3d3b711c
3f338f90
3f22f276
3ef5b5e9
3eb6126b
3eeab259
3f4a5a3b
3ee8415c
3ece9172
3dce9648
3f1a4edd
3f39706f
3f4820a8
3f0530f7
3f7d3831
3eac0545
3dbfcad5
3f29032f
3ef0ce24
3f2ad3bd
3d64d9cd
3f677110
3d6eabf2
3f2c8608
3e44e8a4
3e63dce5
3f29a455
3ecb91d2
3f10f0ec
3ec651db
3f51531e
3cdfdf09
3f38eb9a
3f6d5cd4
3ede2283
3f5bf872
3e7465b9
3f0cb4b8
3f0aba0e
3f5c0850
3e488bb5
3f022c07
3e573c74
3ef04f3a
3ed145ab
3f775b23
3e64c98e
3f4fd97b
3dea152c
3f6d4597
3f1a43d0
3e017ebe
3f2bb1bd
3ed785eb
3f54beb4
3f05856d
3dd5c706
3f0bf841
3f2b48f8
3f6de0c7
3e6b77e4
3eeab0fa
3ef3d871
3ee8113a
3e188e9f
3f1ff63a
3e99d4f0
3ee64a5a
3e0a7a64
3cee95f8
3e1203ea
3e6ea802
3c21a3cd
3ca34107
3f408b48
3e84a704
3e8da47e
3ecdbd21
3f5baf3d
3e8e52cf
3f4bd1f3
3f36c736
3f1f561a
3e00f8a1
3e9ba515
3f5f736a
3f723a8e
3e19822c
3ed31078
3df7a455
3ec02b54
3f332b46
3e99fd21
3ee74775
3e7291ae
3f5b81df
3ef8d0cf
3f61a147
3f481945
3ec80b62
3ec32399
3d32b3ca
3f7e0704
3f3ad23c
3f3c294c
3f444b0f
3ef73764
3ece13e5
3f0bc343
3e4c0ccf
3f160472
3f1f473f
3f3ed327
3f280c46
3f52636a
3eccf7be
3f37b013
3f667e1c
3f618b88
3f42cc6b
3eca0836
3ea90b9c
3f7d80a0
3f35c508
3f2f904b
3e6fd1d0
3f45fc36
3f7c03d4
3ecb63ae
3f21352b
3e96f5d3
3ee6a453
3f59e491
3e9b26da
3d5ac47e
3f41eeaf
3eb4a804
3f0cfd76
3f15f1a9
3ebcae96
3f508541
3eacb49a
3f59c7f1
3f073123
3f7fca89
3f0eb3b4
3f1a842b
3ebac78c
3f3d8df1
3f39a31a
3dc0a091
3e35ee78
3f237131
3f58e920
3f21439b
3e0c3f3e
3dfa58bf
3d075b97
3da4559e
3da432b8
3ee7dc82
3f68613c
3f053fc9
3e78d2d4
3e774f7d
3f393c51
3f48c4db
3f6a06a2
3f5438e8
3b858266
3f263199
3f16f4b4
3f3a256e
3e510773
3e43bb29
3f398da1
3ea1b09f
3f4921c6
3db84e25
3f7905ba
3edb9194
3f161294
3f2082c2
3e931152
3f5d3668
3f1e5b5b
3e8bf59f
3f59466f
3c51b4f2
3f79abb5
3c0d3547
3f2db142
3e40b232
3f790f48
3e9ccc5b
3e249d60
3f14a356
3f70486b
3e4785f4
3eb489be
3ea1a382
3e4605eb
3d1f7db1
3f44781e
3d10c161
3f0cba86
3f498dec
3f0416f9
3f5afe96
3f2a0acb
3e3c3da9
3f067198
3eb88840
3f179caf
3f595189
3d6081a8
3f1ba725
3f2b7338
3f2e60da
3e72472f
3ecb32cc
3f1165f5
3f46bd96
3ee3e3e1
3eb6502c
3f7dac15
3f208117
3eecdea8
3db16ada
3f343397
3ece7991
3f426db9
3e86471d
3f45ac3e
3e804f50
3e717c31
3f5a2421
3f309ecb
3d9c5441
3f0b73ea
3f095106
3e15c2aa
3f1ecf7a
3ebafcd9
3f5d07ee
3e98f866
3ed014ef
3f5d9a9e
3d9ade62
3e4c31e0
3ee8e327
3f558b2b
3edc1b5a
3f1a1544
3eb73b41
3f5b0b87
3f287233
3d860ece
3ecb6a7d
3eaccd66
3ee76d43
3ed5c321
3f6513cd
3e3d7165
3eb5436f
3d87c802
3f177fa7
3f4c636e
3f1fe47d
3ee8026e
3f05b9c9
3f1c88c1
3f1416b2
