3e64d481
3f64cc8a
3e777181
3e47226c
3f180621
3e4be981
3f7945b6
3d925052
3eb2a7c5
3f722764
3f3f1f0b
3f3ed6e0
3f686c09
3db4a19c
3e0c3bd8
3aaf0206
3f4251f7
3f386255
3f4193bf
3edc53a3
3e50292b
3e3c654a
3eb2845d
3f345f81
3e1b1c25
3f13ec43
3f0b182d
3ec7da3c
3ea3eb60
3f3331c5
3f0bafc6
3f1eb663
3f2c05b8
3f5a673a
3e79b748
3e10ce71
3f04b603
3e61b6b6
3db7e979
3f46e0b7
3f4a2ea3
3ec4ae82
3f505bf8
3e5b9c6a
3f464454
3ef120ca
3f27f7d1
3ec883da
3f1acf6c
3f1d2ec8
3e94127b
3d6c3e1b
3f7505f2
3f1f1aeb
3e60a215
3dbd1eaf
3f444d31
