3f769312
3ed91691
3f39f7d5
3f0b8377
3e893813
3f4ebdbb
3b80c09e
3e51f0e1
3f13e9ed
3ec0b1eb
3e55736b
3efaa824
3e2b73d4
3ec549f5
3cbc15a6
3f09508a
3f1f290f
3f4e5a42
3efc7b55
3ec7c4ea
3f4149dd
3f507ec7
3f338d21
3f2a1358
3e1724a3
3e871bb0
3f5c96a0
3f0af815
3f4a67f1
3f277c1d
3db4d168
3f04c817
3f1796d7
3f6e0a0b
3ea29f18
3e435a5a
3e01a518
3ec5a42e
3ecd23e9
3e23d0f3
3c526d53
3f527e31
3f295f66
3f4f343d
3f3daefa
3f6fe514
3f006218
3ed64211
3dc070da
3e9a5c3d
3a704c95
3f04d26c
3e43e47b
3efeca63
