3fc64d48
bc0e062a
c06d95ef
3fae3cad
bbf993dd
c050c0e8
3fa9cf7b
bbf33cab
c04b7339
3fb1aaba
bbfe7d96
c054dce7
3fafed4c
bbfbff8d
c052c73c
3f5689f2
bb99a72d
c0008505
3fb04798
bbfc80e5
c053336b
3fa2dd87
bbe949ed
c043210f
3f982a9c
bbd9f6b1
c0364f8f
3fc5c4f9
bc0da48b
c06cf2a0
3f2bce00
bb7617f1
bfcdd6e1
3fc30f6a
bc0bb3d1
c069b3ac
3fb3f544
bc00e2e0
c0579ba3
3f4d4253
bb9301c1
bff5ebce
3fa44071
bbeb464e
c044ca47
3fbb7dbb
bc06480b
c060a222
3f84819d
bbbdcd6a
c01ec185
3fa478f7
bbeb9744
c0450e00
3fc02a41
bc09a0ff
c0663bb0
3faa43ef
bbf3e37a
c04bfebf
3fc573ae
bc0d6a52
c06c913a
3fc32dec
bc0bc9aa
c069d839
3fadae94
bbf8c852
c05016a9
3fa1bd72
bbe7ad46
c041c7e8
