3fef7aaf
bc82c81f
c07ccbb7
3fd254e2
bc65ba55
c05e06fe
3fcd0c23
bc5ff4d7
c0587306
3fd65deb
bc6a22a2
c0624979
3fd3c3e8
bc674b33
c05f8a6c
3f820ade
bc0e08e0
c009460c
3fd5206a
bc68c7d9
c060fa50
3fc49ad4
bc56bc39
c04f8989
3fb7d3d1
bc48c790
c0420ca3
3feecc98
bc82690d
c07c13f3
3f4ed0ca
bbe1e33c
bfda50d9
3feb4149
bc807990
c0785630
3fd8fd1e
bc6cffba
c0650dfe
3f7749e5
bc070be8
c002850c
3fc677dc
bc58c53e
c0518118
3fe1a267
bc76711e
c06e2e5a
3fa06d33
bc2f3882
c02958e7
3fc62f59
bc58760b
c051348c
3f667df8
bbfbbf5c
bff34f11
3f4d4938
bbe0378e
bfd8b381
3fedb429
bc81cfe7
c07aebeb
3feb43e1
bc807afa
c07858ed
3fd1fb09
bc655833
c05da826
3fc351a5
bc5554ae
c04e2e0c
