3cf0cb63
3cd89550
3d1e855c
3d07463e
3c4ee8b1
3d0178eb
3cb0e828
3b531ea6
3cb4e59e
3d2c9a44
bb8bc21a
3d064699
3b8006a4
bb5dc71d
3ccfcb43
3c0d1178
3cffb752
3c36cb9e
baaa14c2
baacd3bf
3b784fea
3aff5cb4
3bd9ec1f
3c1189c0
3dda0155
3d9ae507
3d8b5206
3dcbf121
3dae08d7
3d0518e6
3da691ec
3d639890
3c07ce50
3d68bab4
3dde0ef3
bc33cd98
3dacbff2
3c24b58e
bc0ea970
3d85aaa5
3cb57d0e
3da47e42
3ceb2bf5
bb5ad07b
bb5e58e6
3c1fbb02
3ba443f7
3c8c2e8a
3cbb3d34
3e8c3c2f
3d501cab
3d3b2fd9
3d890158
3d69d3eb
3cb2d35f
3d5fcc77
3d18e54c
3bb67705
3d1c581e
3d952cf7
bbf1940b
3d681a06
3bdd4c6e
bbbfad28
3d339730
3c73d7bd
3d5d0222
3c9dfc27
bb12ff11
bb155ea5
3bd69bfc
3b5cb3d1
3c3c5820
3c7b91ae
3e3c6a76
3db4a8ba
3da27e8c
3deddd5b
3dcafb8e
3d1b3c6d
3dc246c9
3d84ba02
3c1e652e
3d87b860
3e017f4d
bc51b5f2
3dc97bf4
3c401b2d
bc26643f
3d9be66a
3cd3ad2c
3dbfdaaf
3d092500
bb7f3601
bb81aa6e
3c3a4ca1
3bbf96b2
3ca37fbe
3cda6231
3ea38fa8
3c0082dd
3be72df2
3c293444
3c106415
3b5cda6a
3c0a32a8
3bbcd444
3a615905
3bc11691
3c383c1e
ba952d4d
3c0f5336
3a88a76d
ba6cb95e
3bddcc41
3b169345
3c08798d
3b431d52
b9b58b1a
b9b87978
3a8485fa
3a084930
3ae89bdb
3b1b58aa
3ce8b280
3d566849
3d40d96b
3d8d2650
3d70e6ae
3cb83c32
3d66918f
3d1d8552
3bbbfc07
3d2112d9
3d99b02e
bbf8e2d2
3d6f1f6b
3be3fe2a
bbc5797f
3d3905f0
3c7b380e
3d63b19f
3ca2c396
bb177168
bb19e35c
3bdd19eb
3b6360ef
3c420aa9
3c8196ea
3e421d8d
3d440239
3d304cf0
3d81098f
3d5c3a9b
3ca86cf3
3d52c878
3d1000ee
3babda6a
3d134069
3d8c7ffb
bbe38756
3d5a9a69
3bd06da8
bbb48769
3d292561
3c65a952
3d5027ae
3c94cc04
bb0a7288
bb0caec6
3bca20ce
3b4fddeb
3c3163fd
3c6cf03a
3e317541
3d83635f
3d6c5ada
3dacfdfc
3d939f99
3ce1cc24
3d8d4aae
3d410e75
3be66481
3d45692b
3dbc5bfa
bc18843e
3d92889e
3c0bb69a
bbf2060c
3d62c365
3c99f23a
3d8b87b2
3cc77b89
bb399b8b
bb3c9ab5
3c077d7a
3b8b5640
3c6dd0f4
3c9ed2f7
3e6de81a
3c51c784
3c3cafc7
3c8a1a59
3c6bb383
3bb44226
3c61977d
3c1a1ee5
3ab7ed43
3c1d98ca
3c965eee
baf38388
3c69f614
3adf1253
bac1364b
3c35078a
3b75cbe0
3c5ec76f
3b9f4030
ba142c91
ba169102
3ad85429
3a5e787d
3b3dda6e
3b7d95a9
3d3dece9
3dae9467
3d9d06b4
3de5dc39
3dc426eb
3d16031d
3dbbbd26
3d80429c
3c1910a7
3d83272f
3dfa4772
bc4aa759
3dc2b43a
3c39a43d
bc20cad5
3d96a762
3ccc8da4
3db965ea
3d04878b
bb769f6f
bb7a9acb
3c3407b7
3bb92437
3c9dff3f
3cd308e2
3e9e0ea0
3cd545cf
3cbfd426
3d0c6715
3cefa04e
3c374298
3ce55930
3c9cafe9
3b3afd58
3ca038a0
3d18dff6
bb7791a2
3ceddb75
3b62c947
bb446df6
3cb80b45
3bf9e3b5
3ce27d24
3c21e714
ba96a43b
ba9912e0
3b5bee5f
3ae22ce2
3bc103c6
3c00e759
3dc11690
3c861088
3c712b64
3cb0841a
3c96a16c
3be665a0
3c902b7c
3c44fd35
3aeb15f4
3c496ea0
3cc0323b
bb1b9f96
3c9584c2
3b0e8f2d
baf6f427
3c6761eb
3b9d1506
3c8e5f51
3bcb8bcb
ba3d6372
ba40723d
3b0a4008
3a8e2cdd
3b72a91d
3ba20f33
3d72c0bc
3dae978f
3d9d098c
3de5e061
3dc42a77
3d1605d4
3dbbc08c
3d8044ee
3c19136b
3d83298f
3dfa4bf9
bc4aab04
3dc2b7bf
3c39a799
bc20cdbd
3d96aa1b
3ccc9157
3db96945
3d0489f0
bb76a3e6
bb7a9f54
3c340af9
3bb92791
3c9e021a
3cd30cb3
3e9e117c
3d8fd22e
3d815c37
3dbd5ca2
3da197b3
3cf729f8
3d9aa966
3d535327
3bfc31a6
3d581759
3dce2ee3
bc26f2e1
3da06652
3c18ef16
bc047679
3d78389f
3ca8837f
3d98bbbe
3cda5be6
bb4b2bca
bb4e738d
3c144fa8
3b98859e
3c8228f7
3cadda66
3e8235a3
3ca29693
3c923d8a
3cd61256
3cb6adc3
3c0bb549
3caed7ee
3c6ee68a
3b0e8d24
3c7449f4
3ce91683
bb3cbbdd
3cb55488
3b2ce3e6
bb15bf71
3c8c4e45
3bbe80c1
3caca9db
3bf6da43
ba65aecb
ba696423
3b27aa0c
3aac6cab
3b932502
3bc48a07
3d933355
3dc2c193
3daf2c88
3e003678
3ddad256
3d27596c
3dd16fa7
3d8f155b
3c2ac148
3d924f86
3e0b9a24
bc621320
3dd934cd
3c4f18b1
bc336015
3da810ad
3ce4319f
3dced32a
3d13d89a
bb89900c
bb8bc8a2
3c48d625
3bce89df
3cb041cc
3ceb6c9f
3eb052f4
3d313b95
3d1f6998
3d695a76
3d472205
3c984ab8
3d3e9786
3d023597
3b9b6421
3d05256b
3d7e151f
bbcdbbbf
3d45a9b2
3bbc7674
bba33c5f
3d18f17b
3c4fa96d
3d3c372e
3c868b21
bafa5ee3
bafe69bd
3bb6c419
3b3bf47c
3c2065e9
3c563de2
3e207586
3d292689
3d182495
3d5eb640
3d3e0d4f
3c9158d6
3d35e685
3cf88b01
3b944e11
3cfe2618
3d727eea
bbc459fa
3d3ca624
3bb3de4e
bb9bcaba
3d11f7fe
3c463125
3d33a1eb
3c806872
baeef404
baf2cfac
3bae6e74
3b336243
3c191565
3c4c78c9
3e19244c
3d16972a
3d0772f3
3d46465d
3d2932d3
3c816618
3d21f102
3cdd4588
3b84083d
3ce24328
3d57e34f
bbaece8b
3d27f311
3ba021e0
bb8ab298
3d01f3ca
3c307203
3d1fec1d
3c64a308
bad4bbeb
bad82b34
3b9b4abf
3b1fb371
3c084957
3c360942
3e08569b
3c91293a
3c8290c5
3cbf204e
3ca31923
3bf97783
3c9c1a4d
3c554b36
3afe8b30
3c5a1ac6
3cd01aae
bb288117
3ca1e4e9
3b1a5bde
bb05b26e
3c7a88af
3baa1570
3c9a280c
3bdc64bc
ba4d1066
ba505ffc
3b15b16a
3a99f16b
3b835f6d
3baf7914
3d836c37
3d4fb35c
3d3ad121
3d88bc05
3d695d99
3cb278e2
3d5f5b38
3d1897ee
3bb61ab0
3d1c0902
3d94e17b
bbf119cd
3d67a494
3bdcdc73
bbbf4c2a
3d333c50
3c735c5a
3d5c924d
3c9dac36
bb12b4b0
bb15130f
3bd62f64
3b5c4423
3c3bf8d2
3c7b1262
3e3c0b1e
3dc0fdab
3dad9611
3dfe19f1
3dd8d697
3d25d51d
3dcf89af
3d8dc95a
3c293512
3d90fc07
3e0a5637
bc60068d
3dd73cce
3c4d3827
bc31bfdf
3da68ab4
3ce22021
3dccf341
3d12818c
bb8850db
bb8a8449
3c470422
3bccaaa1
3caea8d1
3ce94a5b
3eaeb9d2
3dc03e32
3dace9d8
3dfd1dd6
3dd7ff75
3d253095
3dcebbc7
3d8d3cae
3c288d31
3d906c2f
3e09ccf7
bc5f2849
3dd66742
3c4c6c8c
bc310f84
3da5e579
3ce13fc8
3dcc27eb
3d11f031
bb87c99c
bb89fadb
3c463eae
3bcbdf92
3cadfb88
3ce862e6
3eae0c78
3cd34c44
3cbe0d70
3d0b1a46
3ced684c
3c359031
3ce3398a
3c9b3c80
3b39421b
3c9ebcd6
3d177596
bb7546cb
3ceba7a3
3b60afb4
bb429c58
3cb65702
3bf7935e
3ce06446
3c20674d
ba953f27
ba97a807
3b59e50c
3ae014c1
3bbf3a40
3bff6b96
3dbf4cde
