be849d93
3b1cddf0
3ef301e8
be690e5e
3b09d66b
3ed58748
be6320d9
3b0654e7
3ed018ea
be6da9a0
3b0c8fdf
3ed9bfbb
be6b68f5
3b0b3acf
3ed7af61
be0f6757
3aa9a0bf
3e83634f
be6bbdb8
3b0b6cf0
3ed7fd0a
be59d9f8
3b00d851
3ec79907
be4b8544
3af0bd09
3eba77b9
be844390
3b1c7377
3ef25cf8
bde5e4f4
3a87f7b3
3e52a1b0
be8278ca
3b1a54cb
3eef144c
be70c07e
3b0e639e
3edc9455
be09506c
3aa26cc0
3e7b9e08
be5bac93
3b01ec48
3ec94489
be7ae5e7
3b1463d1
3ee5e01b
be312b75
3ad1919d
3ea25324
be5c0f19
3b02268d
3ec99ecd
be00a19a
3a982771
3e6bb4e2
bde3c9e6
3a86b8e2
3e50b3cc
be841b84
3b1c4418
3ef21396
be8290c8
3b1a712e
3eef4045
be6844de
3b095f3e
3ed4ceaa
be58564a
3affe60f
3ec635d5
