00000000
00000000
00000000
00000000
00000000
00000000
00000000
00000000
00000000
00000000
00000000
00000000
00000000
00000000
00000000
00000000
00000000
00000000
00000000
00000000
00000000
00000000
00000000
00000000
00000000
3f8e90e3
3fc65619
3fb030a3
3fddcbbc
40303ae6
3fc35700
401d257c
40051013
400a6520
3ff88cc7
4013f38f
3ff06f91
3fd7baf5
3ff1bdf2
40277eaf
4002f6e2
40152f07
3fea8de9
4005984e
3fc566ab
40011c62
400cd70d
401484a2
3fe102ab
3fe0fedb
00000000
00000000
00000000
00000000
00000000
00000000
00000000
00000000
00000000
00000000
00000000
00000000
00000000
00000000
00000000
00000000
00000000
00000000
00000000
00000000
00000000
00000000
00000000
00000000
00000000
