be7c3682
be545439
be9ee83f
be8b63f8
bde959a9
be8a38be
be3583de
bd4f97e3
be5834cf
beac995f
3cc1e04f
be8a007e
bd31344d
3c65b411
be60674e
bdcbb0d6
be7ca29f
be0ba1b7
bc188925
bc66c1d2
bda4740b
bd884f8b
bd5ee153
bdedc817
bf550d8e
bf21f774
bf085a97
bf4c183e
bf330735
be95da74
bf3186e4
bee921a9
be05500d
bf0ad802
bf5dae1a
3d7901f4
bf313ea6
bde39846
3d1382ea
bf101ba0
be82ce7a
bf223ce1
beb35682
bcc3e951
bd143025
be5337c8
be2f1295
be0f2130
be98b2f6
c008d19b
bed9c0c0
beb75180
bf093214
bef0b0e5
be4977ab
beeeac36
be9cb6f0
bdb33acf
bebaaa78
bf15044c
3d276304
beee4b15
bd98fe26
3cc651a2
bec1be3f
be2fdc42
beda1e17
be711b83
bc83b1d6
bcc73a88
be0dfbe4
bdeb5f7e
bdc06d8d
be4d4b19
bfb7f183
bf3ce456
bf1f0576
bf6e05fe
bf50ca2f
beaec3d4
bf4f09fc
bf07f192
be1b797f
bf21ecd8
bf81441f
3d91338a
bf4eb5ba
be04b710
3d2c089f
bf28107d
be988d45
bf3d354e
bed126ac
bce47acd
bd2cd2a6
be7654ac
be4c2d39
be26ec6b
beb21571
c01f9043
bd8aaeac
bd6980d8
bdaec10b
bd994a84
bd004f78
bd980174
bd479dd5
bc644b9c
bd6dc46a
bdbdcfb7
3bd535d8
bd97c398
bc42e036
3b7c9c3f
bd76c82e
bce000ee
bd8aea1e
bd198e6b
bb27bf48
bb7dc4e6
bcb4da6e
bc95e778
bc751b50
bd02bf40
be6a4ca9
bee0627f
bebce6c6
bf0d5fbf
bef8057b
be4f9a72
bef5f110
bea17cc9
bdb8b034
bec059d7
bf198e22
3d2c7c13
bef58cf9
bd9da6fb
3ccc5bdc
bec7a4cc
be353762
bee0c2ae
be787358
bc87b49d
bccd4bd9
be124ee4
bdf28a9d
bdc649d8
be538bb4
bfbd8ba8
becd91e1
bead0fd6
bf018508
bee3397c
be3e320f
bee151b5
be93f251
bda933b5
beb038dc
bf0cadef
3d1e058b
bee0f604
bd906ed6
3cbb391e
beb6e745
be26056a
becdea00
be639e23
bc78a727
bcbc14fc
be060a42
bdde3440
bdb5a969
be41ceb0
bfada6e5
bf098bab
bee796e0
bf2d5259
bf1808dc
be7e8477
bf16c27e
bec5faf8
bde26c92
beebd17f
bf3c416d
3d537674
bf168524
bdc1474b
3cfa8a2f
bef4c259
be5e2ae5
bf09c6a1
be984c35
bca65f4a
bcfbb068
be335ef0
be14aceb
bdf318fe
be81ace6
bfe86105
bdde82d2
bdbb52f3
be0c3187
bdf5f346
bd4ddea4
bdf3e34d
bda02392
bcb72563
bdbebea5
be1845df
3c2b0b59
bdf3800d
bc9c55f6
3bcaa6fe
bdc5fa02
bd33b3fd
bddee233
bd766039
bb869283
bbcb94fa
bd11161f
bcf08420
bcc4a1f5
bd51c779
bebbf675
bf369749
bf19b77e
bf661562
bf49d338
bea8ef6a
bf4821f7
bf0368ac
be1649d1
bf1c8614
bf79e87e
3d8c5b97
bf47d086
be0049bd
3d264b89
bf22754c
be93768c
bf36e58e
beca2c9f
bcdcdbb1
bd270ed3
be6e1d20
be455da6
be215af8
beac24b0
c01a3daa
be607c63
be3cfc92
be8d700f
be78221a
bdcfb266
be760d71
be218f6c
bd38c583
be407009
be999fda
3cac8ffb
be75a94f
bd1db92c
3c4c7371
be47bbd5
bdb54c4b
be60dc9e
bdf89004
bc07c446
bc4d638a
bd925fc6
bd72a69a
bd4660ba
bdd3a41d
bf3da187
be0d7757
bdee30c9
be324314
be1c5e42
bd82e2d7
be1b0e96
bdcb9fa1
bce8e0c9
bdf28a44
be419f20
3c597d80
be1acf7c
bcc6c9a6
3c00d730
bdfbbc5b
bd64800d
be0db3fb
bd9ca386
bbab1d4f
bc016e7e
bd387bce
bd18e9ce
bcfa06e1
bd855f23
beef00b0
bf368cf7
bf19aecd
bf660860
bf49c7cf
bea8e5dd
bf4816a7
bf03613f
be164152
bf1c7d3b
bf79da5e
3d8c53a7
bf47c53a
be00427c
3d264222
bf226c1d
be936e36
bf36db37
beca2130
bcdccf35
bd270561
be6e0fa9
be45527e
be2151d9
beac1af5
c01a34f2
bf167b12
befd5e61
bf3d9f0f
bf265516
be8b39fb
bf24f007
bed89956
bdf7b7b8
bf00ff68
bf4df5ab
3d675969
bf24ace8
bdd37477
3d090cf5
bf05e375
be730f92
bf16bb94
bea69ec4
bcb604b2
bd09ade8
be443d48
be22a846
be04fac8
be8dded4
bffe3b88
be2bd88e
be10abc1
be588b2d
be3df2ba
bd9efe69
be3c5af9
bdf75a00
bd0d71b9
be13500d
be6b33a2
3c84191a
be3c0e52
bcf17a2a
3c1c824d
be18e5de
bd8ac905
be2c2238
bdbe46de
bbcfdc78
bc1d3a19
bd6019f1
bd39c056
bd17dc28
bda2035a
bf112a07
bf4bab1d
bf2b760c
bf805257
bf611f70
bebc6fb2
bf5f3c2d
bf1293ff
be27a30e
bf2e9795
bf8b60d2
3d9c8f5d
bf5ee154
be0f18d6
3d397dcb
bf35362c
bea47c4b
bf4c026b
bee18329
bcf65a5f
bd3a57a0
be84ccdd
be5c2618
be33fb41
bec003c6
c02c0bb5
beb9ec8c
be9c85d2
beea4893
becd825c
be2c04dc
becbc933
be85cec1
bd99081f
be9f6186
befe7855
3d0eeb7d
becb7644
bd82a13c
3ca954a4
bea56c7a
be1627a7
beba3c3e
be4ddd64
bc60e3c7
bcaa1b7f
bdf275d8
bdc8f7f4
bda44cfe
be2f4920
bf9d0e71
beb1485e
be953f78
bedf6501
bec3f526
be240621
bec2507f
be7f2d59
bd91eb4e
be97f92a
bef2a492
3d0846fd
bec2016b
bd791dee
3ca175e5
be9dbc37
be0f2d11
beb1945c
be444bf4
bc566ff9
bca23382
bde730fb
bdbfa0c5
bd9caa19
be272387
bf95c1bd
be9e0503
be8507f0
bec71efc
beaeaa53
be123395
bead3361
be637341
bd82105f
be8775d3
bed84723
3cf2f080
beacece5
bd5e0c69
3c8feaa8
be8c9899
bdff3cdd
be9e48bf
be2ef7b2
bc3f231c
bc9093aa
bdce1215
bdaace61
bd8ba444
be14fa56
bf857c0e
be18c468
be009bf6
be4080a4
be28dc14
bd8d578a
be277198
bddbe3db
bcfb7b48
be02f52d
be5116ce
3c6add4e
be272d74
bcd6aaf9
3c0b220d
be07ec40
bd76c104
be1905e4
bda926e1
bbb8c8b4
bc0bc572
bd47389b
bd2520f9
bd07000a
bd9006ab
bf010c38
bed996ee
beb72e4c
bf0917bb
bef082ac
be4950fb
beee7e60
be9c98d7
bdb31863
beba869f
bf14e7ae
3d2742df
beee1d52
bd98e0c4
3cc62b8c
bec1990a
be2fba7c
bed9f434
be70ed35
bc83988b
bcc71445
be0de09f
bdeb324a
bdc04898
be4d23ac
bfb7ce2f
bf49dbb6
bf29efec
bf7e5cbf
bf5f1f39
bebac2f3
bf5d4041
bf11467d
be2625a2
bf2d0a56
bf8a23b2
3d9b2b25
bf5ce637
be0dd340
3d37d7bf
bf3399dd
bea3060b
bf4a323d
bedf820f
bcf429d9
bd38afa5
be839eb5
be5a3132
be3261bf
bebe4ee3
c02a8441
bf491a44
bf294d11
bf7d68fc
bf5e4966
beba0ff8
bf5c6c39
bf10bb45
be258669
bf2c6482
bf899f50
3d9a9671
bf5c1286
be0d4b56
3d372791
bf32edc0
bea269d0
bf497078
bedeabdd
bcf33fdc
bd37fea8
be832092
be596018
be31b6cc
bebd9882
c029e0d8
be5df725
be3add5d
be8bd986
be7558e3
bdcd5d6a
be734a36
be1fbf0c
bd36b26c
be3e46e9
be97e649
3caa9ffb
be72e734
bd1bf3d4
3c4a27c9
be457dbc
bdb3432f
be5e564b
bdf5c591
bc063e0a
bc4b1530
bd90bb0c
bd6fed26
bd442687
bdd143ca
bf3b8078
