be831699
be62ef7f
bea7d884
be919a27
bded366c
be8df598
be3ea94b
bd32a887
be54c61e
beb68003
3cef3ecd
be907a6a
bd2c114e
3ca49a6f
be6628bd
bdbd80ee
be86416e
bdfd538a
3ab9a60f
3919b4b5
bd82bb84
bd47eabe
bd6f4a87
bdd3bb38
bf623671
bf26207e
bf0fcbf0
bf54b598
bf38852e
be964f03
bf33e75c
bef19f8e
bde26978
bf06d2bc
bf6747d4
3d9798bf
bf371888
bdda0f45
3d5099a4
bf11d6d9
be7027fa
bf2a240e
bea084df
3b6b4554
39c2ca3f
be25ad11
bdfd5a56
be17a02d
be86299d
c00f56ad
bee081db
bec25463
bf0fbad6
bef95d45
be4b214e
bef32022
bea3446a
bd98fd25
beb633e7
bf1c4752
3d4cdeea
bef7707a
bd935857
3d0cf405
bec5170f
be2246a2
bee5ee85
be58edba
3b1ef98f
39839f1f
bddfe5de
bdab316d
bdcce8f5
be354f5a
bfc1b5ec
bf41a6e3
bf279f2d
bf77f3d1
bf5717be
beaf3676
bf51b61c
bf0cd417
be03f673
bf1d295c
bf86cce2
3db0b6d5
bf556ead
bdfe306e
3d732991
bf2a00ba
be8bf930
bf4654b3
bebb1d67
3b892041
39e31069
be412057
be13aa3e
be30bf7e
be9c6438
c027167d
bdaf333d
bd97a677
bde053a4
bdc29919
bd1e8497
bdbdbabb
bd7ed1df
bc6ec71b
bd8e2fcc
bdf3e989
3c1fe055
bdc11888
bc65f820
3bdbfe3c
bd99cdf0
bcfd45c8
bdb36eeb
bd294935
39f81ed3
384d6dc1
bcaeb982
bc859854
bc9fe82b
bd0d7d71
be972acd
bee79f6b
bec87d1a
bf144901
bf00a241
be51916b
befad4c2
bea8711a
bd9dd66f
bebbfa38
bf213b4e
3d535d28
beff4819
bd9803d7
3d116ba9
becb562b
be276b47
beed3818
be5fcdcc
3b24036b
3987cb0c
bde6fe7c
bdb09e6b
bdd36783
be3b0e6d
bfc7d99c
bed78e11
beba94a8
bf09ffa1
beef6bbd
be4307bc
bee96e4a
be9cc1c5
bd92e36c
beaeeff6
bf160c04
3d44b394
beed9298
bd8d783b
3d075529
bebd3b26
be1bce1c
bedcc35c
be50474d
3b18a2bb
397cbf09
bdd6f84c
bda45ddf
bdc4bd38
be2e1486
bfb9fc82
bf0e3efd
bef64063
bf3621d9
bf1dfecd
be80b3a0
bf1a0ade
becee3c6
bdc1dd77
bee6e26e
bf4608a9
3d81cdf6
bf1cc692
bdbab6a2
3d329d1d
bef9bfdf
be4da22f
bf11aed6
be8971bd
3b497351
39a6c9f0
be0ddc28
bdd8eee7
be01d452
be65c0d0
bff57795
bdfca049
bddaab3a
be21bb48
be0c4c59
bd649250
be08c9c4
bdb7b74b
bcac2677
bdcd05e9
be2fda1f
3c6687bd
be0b3718
bca5ccb4
3c1e9b70
bdddc668
bd3699ba
be015d70
bd741929
3a32e2cf
38941b56
bcfbf0c3
bcc0a26e
bce69309
bd4c04bc
bed9f8ea
bf3b961c
bf225f1f
bf702fa3
bf505b0b
bea9b989
bf4b2490
bf086ae0
bdffa8a5
bf183d2d
bf829400
3dab2dde
bf4ebf4b
bdf63a3d
3d6b8bcc
bf24ad94
be8796d4
bf401e68
beb5410b
3b84d4ba
39dbf3b8
be3b13c7
be0f0a35
be2b3642
be977e36
c021dab7
be714b75
be50dc52
be9a7a2b
be860159
bdda51b3
be82a711
be2f79be
bd246db7
be43d3b2
bea7f6de
3cdc30a1
be84f887
bd1e5ce0
3c977e33
be53d3d5
bdae68fb
be771ff6
bde92642
3aaadcb7
390d76ac
bd70a3ce
bd37fe78
bd5c3b6c
bdc2de0e
bf503201
be1af14e
be061d9c
be46638f
be2c18fc
bd8c3073
be27cabb
bde15b31
bcd32b45
bdfb7e20
be57b5b8
3c8d63fc
be2ac4e2
bccb6106
3c428e6d
be080551
bd5ffce6
be1eafaf
bd95b655
3a5b6e72
38b5ad0d
bd1a85a6
bcec4bd0
bd0d6aea
bd7a42a9
bf05b03f
bf3b2ec5
bf2205ab
bf6fab51
bf4fe842
bea95c09
bf4ab4a7
bf081fb8
bdff1bcd
bf17e94e
bf824c11
3daacf90
bf4e4d65
bdf5b298
3d6b0a08
bf2452db
be874c21
bf3fb491
beb4dd30
3b848b8c
39db7a8c
be3aacb7
be0ebb68
be2ad7ef
be972ac1
c021818c
bf1b134b
bf063b08
bf468f14
bf2c3ebd
be8c4f34
bf27ef8a
bee18ca1
bdd35999
befbb54c
bf57e50b
3d8d8301
bf2aea59
bdcb8da3
3d42b91b
bf082328
be602e09
bf1ed27f
be95d72d
3b5b9e96
39b5d4e8
be1aa78c
bdec7fa6
be0d89f0
be7a7990
c005cd93
be3e1d72
be248f71
be736c7c
be532a0d
bdac033c
be4de195
be0a41a2
bd018d71
be1a4a88
be84569b
3cad7c95
be5188bf
bcf98bf0
3c6eb8a2
be26e5dc
bd896aba
be42b562
bdb7b286
3a869f1b
38deeabf
bd3d995b
bd10f7d1
bd2d8516
bd9988fe
bf240940
bf50f859
bf34e187
bf85c86e
bf681b61
bebd1287
bf624cc6
bf17f7e0
be0e66b3
bf2997e3
bf917698
3dbeb14d
bf6650b1
be0925e3
3d8332cf
bf37734b
be970ba8
bf5604e9
bec9ea7d
3b93f910
39f50678
be506728
be1f5877
be3ebaa5
bea8c327
c0344e06
bec3479d
bea907e3
befa0963
bed8e69a
be30af81
bed37964
be8e0325
bd85126c
be9e7b8f
bf07eef6
3d32331b
bed739f7
bd8029b6
3cf534d5
beab6e8f
be0d2666
bec7ff7e
be3cb00f
3b0a4757
3964f908
bdc2bfee
bd94e801
bdb23bd7
be1db4c3
bfa87e0c
beb8fb44
bea01de9
beecd9ce
becd765e
be275e30
bec8526a
be8685ed
bd7c1bcf
be961ffc
bf00c3d0
3d28cd59
becbe055
bd72ceef
3ce84676
bea2642b
be05b4d3
bebd7373
be32bcb5
3b02fc87
3958e5d2
bdb87abe
bd8d0db8
bda8d59f
be1563ac
bf9f9b57
bea65d37
be90007f
bed50357
beb8c8a0
be1685f3
beb4291e
be71f7df
bd62bc3a
be870403
bee79c5d
3d17d028
beb75b74
bd5a5ef9
3cd0e5e2
be920c27
bdf07fc1
beaa623e
be20bf8b
3aeb9b52
39431172
bda5e9a0
bd7db6f0
bd97d799
be065aa7
bf8f8b12
be249fff
be0e7f20
be52c949
be36da1d
bd94f320
be3246fb
bdef7053
bce05d72
be059ab1
be65308a
3c9639e2
be3570c3
bcd81694
3c4eb6d7
be10854f
bd6dfc25
be289a44
bd9f115b
3a6924cd
38c10769
bd242d9e
bcfb0ff5
bd16413e
bd84f31a
bf0e0aed
bee25b21
bec3ee0b
bf10e9d3
befb6af1
be4ccd83
bef520a8
bea49c97
bd9a3fa7
beb7b3fe
bf1d90c4
3d4e8ecb
bef97a17
bd948ef3
3d0e1d28
bec6b689
be239cb8
bee7d33a
be5ab706
3b2048af
3984b496
bde1bddb
bdac9a4f
bdce98eb
be36cd8f
bfc34e46
bf4f668d
bf3385bc
bf84c733
bf665d18
bebba6fd
bf6099a8
bf16d3ad
be0d54e6
bf2851cd
bf905ee7
3dbd42a5
bf6495d9
be081e2f
3d82368c
bf36128f
be95e93b
bf546967
bec86640
3b92dc8c
39f32f58
be4ed672
be1e2615
be3d4bec
bea77eaa
c032f358
bf4edee9
bf331054
bf84705d
bf65c670
bebb2c43
bf6006c4
bf167109
be0cf878
bf27e3b8
bf90007c
3dbcc6df
bf64005b
be07c52a
3d81e163
bf359b7c
be958731
bf53de7d
bec7e331
3b927c80
39f2904d
be4e4f2d
be1dbea7
be3cd01f
bea7111f
c0327e4f
be6b934b
be4be8f6
be96d0ce
be82d436
bdd524f2
be7f1c8c
be2b50f6
bd2087f8
be3f2f6d
bea3fbaa
3cd6f887
be81d1ab
bd1a9bf0
3c93e6f3
be4ece79
bdaa46ab
be71446b
bde39f84
3aa6cfee
390a1c47
bd6aef9d
bd33a200
bd570310
bdbe3f9c
bf4b42af
