00000000
00000000
00000000
00000000
00000000
00000000
00000000
00000000
00000000
00000000
00000000
00000000
00000000
00000000
00000000
00000000
00000000
00000000
00000000
00000000
00000000
00000000
00000000
00000000
00000000
c11f2edd
c1590c22
c1439488
c174eb8b
c1bd9025
c155de91
c1aa70da
c18ed46e
c1963a78
c1878ec1
c19d2e59
c181f1ed
c16f4def
c1844266
c1b2a6c6
c18bedc6
c1a13c15
c17e9712
c19162d1
c15d6e52
c18d59c3
c1970c9b
c1a0ebc2
c174ef35
c1620a01
00000000
00000000
00000000
00000000
00000000
00000000
00000000
00000000
00000000
00000000
00000000
00000000
00000000
00000000
00000000
00000000
00000000
00000000
00000000
00000000
00000000
00000000
00000000
00000000
00000000
