00000000
00000000
00000000
00000000
00000000
00000000
00000000
00000000
00000000
00000000
00000000
00000000
00000000
00000000
00000000
00000000
00000000
00000000
00000000
00000000
00000000
00000000
00000000
00000000
00000000
c1239e3c
c15be805
c1488b84
c179de5e
c1beed66
c1596311
c1ac6fc7
c18f42c2
c1982e54
c18938dc
c19d04ca
c1831163
c1751bef
c18670cf
c1b2a463
c18bb95d
c1a2c04d
c1809eaf
c19365a0
c163dbb2
c18f8c83
c197a05e
c1a27d29
c177d0cf
c15b141f
00000000
00000000
00000000
00000000
00000000
00000000
00000000
00000000
00000000
00000000
00000000
00000000
00000000
00000000
00000000
00000000
00000000
00000000
00000000
00000000
00000000
00000000
00000000
00000000
00000000
