3d9f262a
3e225f73
3e4b54e8
3e7a9fa3
3d080d5b
3f0da63a
3e18f5a1
3da9e4f5
3f0f1715
3ef2e406
3ea79242
3edb88d0
3e81d0cf
3f74fef0
3d16d71b
3f699580
3ec1ea19
3edfe63a
3e2b92b3
3eab92c6
3ecb5473
3f15fa8d
3ef725a2
3ca32a6b
3e2b88af
3ed4da53
3e399d78
3d1e155e
3f37f73e
3f03cebf
3eefca18
3d42d03f
3f14e376
3ead4b30
3d64497c
3e963e1b
3eecd722
3f788c8e
3e9581e6
3e95b8ae
3f326e67
3d8f22cf
3eb76177
3d569dda
3e0d41dc
3f215963
3eb0b322
3e161aad
3e8ed0cf
3f26ae67
3d2efac0
3f06f315
3aee68fb
3ebf23e8
3c084dc6
3f629b44
3e78f9bd
3ed4a4ab
3db5188c
3f78c8e0
3e8f6ab7
3f2d4d3e
3ebe2274
3f30dafe
3f2c3602
3f5f5102
3ea71df4
3d7aea22
3edb673e
3f6d6168
3e284693
3f54e6f6
3ed4a1ac
3eafe1a9
39b5f592
3e8b2533
3ea89849
3f50868c
3f0aad22
3d868b2c
3ea1a13f
3f749a6b
3ecd149e
3ef73960
3f113553
3e88c7a1
3e6bc218
3f373c73
3f636302
3e602714
3f3780ac
3e144e34
3e8eacfd
3e8c9abd
3f2f67bc
3f5900a0
3f4623d5
3d92e14a
3eb8a23b
3ed53c40
3f67fa25
3d94b990
3f434c76
3d747922
3dd96f56
3f2ed3e8
3f2ecd09
3ebbc496
3f419af2
3f700e0e
3cf85142
3f550313
3f7ceacf
3f58dd8c
3f642004
3f6570e8
3f4c02fe
3f3b3334
3ecec03b
3f210809
3e835c65
3f26065a
3f218b7b
3e8953f8
3f3f2ba3
3c52efeb
3f3ea00b
3f4c639e
3e0787e9
3f5449d4
3e6f3b80
3e973214
390a3403
3e2f2552
3f0665f1
3f1bee6c
3f041487
3f30c6ce
3f048f12
3e9cca00
3f585b90
3e92562a
3f7edb17
3e3f7626
3f70d700
3dc839a3
3ed3b5c7
3e868f20
3d2b2c9a
3e8489eb
3d9423b6
3f2f9f84
3f3d2579
3f576862
3f5bf3af
3db441c4
3f28c54c
3f0ba530
3f4fcb3c
3f66355f
3eb56fc2
3f0ac195
3f3e2f30
3f0b0c11
3e596384
3dcf8e65
3e2167d4
3f592de0
3e511a65
3f723c1c
3f066355
3f2e1e21
3f3767bf
3f468b00
3f4a7a7c
3f54b882
3f41220f
3f369806
3f15c64e
3e22b15d
3e1372cc
3e9721d6
3c546bf2
3ea515a7
3e82c3ec
3e884b8d
3f22f6c3
3f0c7d5a
3f0c4409
3dafc66e
3f3b9f24
3f1d3ee4
3c78568a
3f38a0fa
3b4e0341
3f6f0cc1
3f3c3e20
3e9d308b
3dc93ec8
3f3508e9
3ddd4cad
3e9e9642
3e6d3441
3f60be24
3f4ac96b
3f5081c9
3f5a49de
3f6c4fe3
3d3e8715
3f32668b
3ec58e5d
3ecd7ac9
3ec0fec3
3f575947
3f2db6b6
3f1624e0
3ea7b4b7
3ea72394
3e23e6b0
3f7efb3f
3f5a05a7
3ecea730
3f62c124
3e8949ea
3f23ceb5
3ec0b7cb
3f31edf0
3f309384
3f74535d
3f035e9e
3e335862
3ec9adc4
3e9f209f
3f0090a5
3f46d775
3f756f50
3d38b799
3d9b7169
3f18bbc9
3f2f4b42
3e5cfd29
3f0f4847
3f0848c1
3f7891c6
3e009ace
3f363ef2
3f5e3311
3f17eff3
3ccd2d5d
3eb36145
3f70f8e5
3f777518
3f506ce9
3f178ebc
3d0c9b12
3e95e52c
3f2e81a0
3ea3b895
3e0f2c4f
3f081384
3eed6131
3da97cb9
3efaaee4
3f42bde3
3ef10980
3e55150c
3d3d4237
3dc0a99a
3e61bf07
3ede40d8
3d4f47e1
3f48d81e
3eab3ec2
3f3cd0c9
3f6e217c
3f20406a
3f56bc00
3f4241e1
3f43948b
3dacd6d0
3ef5460b
3e9a97c9
3f10c1de
3dfc399a
3ec30861
3f0710c5
3e3e7528
3d1f333e
3e0748a2
3f6e3b7a
3cc9172a
3f6bd268
3eb58bde
3e7d61ae
3f0d750f
3f715717
3e46bf8f
3f4e7097
3ee3e313
3e21da54
3f5c6894
3cd341a0
3e72335f
3e38d120
3f021380
3e5e2a0b
3e0e5d98
3e9f60fd
3d844050
3f7cda46
3f7360b3
3f54cbec
3ed0c67b
3d1b6529
3f21d259
3f68ea00
3eda4efb
3f5cd70d
3f671400
3f4501c4
3f0a1c72
3ebe451e
3eaf192d
3edd6114
3e714db6
3f4ce7cc
3e7bc5bd
3dea7a7b
3db58d23
3e8ef489
3d99e3c0
3ebb6665
3d3e3d58
3f686885
3ed13438
3ef8febf
3c790482
3edc57ac
3f4d2a88
3ef4a0fd
3cdca73b
3f31850b
3e9bb807
3f339176
3ea79bfa
3f6e8548
3f75b5d3
3f752b8f
3ef1aa6f
3f5b499e
3f5ac8f9
3f48cb54
3da00835
3ee094f3
3f658cc0
3e55ee8e
3f0b3a37
3ec7ddd5
3ee88909
3f5b8a91
3f70829f
3f67d73d
3ecda8b6
3f721315
3f2cc09a
3dea8ccd
3f066db0
3e478ac7
3f094f85
3b938db6
3f5d10a3
3e90bfbc
3f6e23c2
3edd3450
3f772fd3
3f6a35ed
3f7bc658
3cba65bd
3ba6e9ec
3f6c6aa0
3e269719
3eb352aa
3f279cee
3e84e3bc
3e819d36
3ea058dd
3f439fe8
3e811790
3eca3dc9
3f02e801
3e807f80
3dfcddcd
3e3c7327
3e959233
3df51a4c
3f670f7c
3c251a5f
3f0ece57
3e9b997f
3f6b7be9
3f53ce75
3e546121
3d945322
3f670027
3d2198b9
3e9963fe
3f70f17b
3f4e2af6
3f26f93a
3e2d1452
3d47ccca
3f41edcf
3e40042e
3e91b695
3f2a2650
3f58089a
3f0cdf0c
3f191882
3d919373
3efc6ca8
3e16e442
3f4427c2
3da353ce
3f17b0ae
3f4f9493
3eba1410
3ef91c03
3eeddc1c
3f0a9ebe
3f35f045
3e923536
3f7f5958
3f31a88f
3f26e4b9
3e9deb9f
3e831f6c
3c81999d
3eff73e3
3dde2e50
3eb24722
3d276577
3f2749d4
3ddd3814
3e85c557
3eb850dc
3f2c2269
3f10c2c9
3e98604e
3f13ef26
3ef990bc
3f707ceb
3f08f534
3ef3130f
3e99c75b
3f23000a
3f09310d
3f2f3d33
3f20b6b6
3eee46cd
3efb0829
3f7435f6
3e6f92a1
3f1a3236
3e582bd6
3ef8212b
3f649dd3
3e24ad52
3f1a858f
3f0f14cb
3f1df069
3deb58e4
3e08d502
3ec8c684
3f6ad41e
3f18798b
3f1f3458
3f42e0b4
3ea1652c
3eecd78e
3dcdd040
3e5b84c5
3e205180
3f439beb
3f3795f8
3e11848e
3e178f35
3e9feb3c
3f35ba1f
3f00237c
3d1e1938
3e628465
3efbf0af
3ef4dabf
3c96ead4
3e37df66
3f5d240b
3f6a8323
3f4b94ab
3f724c33
3e9c8fdb
3ec09507
3c0e9b31
3f458540
3ea3a1d4
3f562281
3edcd76f
3f7a0e83
3f739841
3de3c342
3f694335
3f563e7f
3f78709c
3ef3e8c6
3ed45784
3e77b9a0
3c96d626
3eb55625
3f65babf
3f7babd3
3e44b477
3f1b1441
3e6c04eb
3ec75f42
3f4e99bd
3eb09810
3f1571d3
3e6bfa21
3f08e988
3f3d4e96
3f4ded93
3e434323
3eeb5905
3f17a5eb
3f31eb4e
3db5c021
3ed29ba2
3f5479a7
3c15d9dd
3f539f1b
3df2fa57
3e1e539d
3e834fba
3eda718d
3f5384a2
3ea7b892
3e0db10d
3ec1a43d
3f365a2c
3f0da0d9
3f7661e3
3ee9cb47
3f0c1d8c
3f4c9b40
3f0a2c38
3e950528
3e5f6f82
3f0b2235
3ee44eae
3d9d9e3e
3f7bae8a
3de9061b
3f32cc0c
3f78bcc3
3f6fbef7
3f7d73a1
3f61c9ec
3eb14b71
3f0e1432
3f70eaae
3f5350c4
3e25a6ff
3ea930a6
3f024d8c
3f4d1757
3f068c09
3f239c80
3f1512c0
3f179ca2
3e6cf1d7
3f08ad4f
3e85ccd1
3e317301
3e1bc4aa
3f73a277
3e71722e
3f3b6b7c
3f7de3c1
3f1fed16
3bf8dfac
3e6ce9e4
3f400bba
3eb3ef91
3e228c35
3d868e77
3edfa66c
3deded10
3f4c5b7f
3f326f32
3ea57a6d
3e9c04b4
