3f6fd59e
3f3903d1
3f046083
3f2d5d04
3f1223a2
3e681795
3ee8896e
3e6218f0
3f2ad6f2
3e5f78cc
3f333921
3eac2fd6
3f67bad9
3f0202f3
3f2ab459
3e0ed2dd
3f253d6c
3e370f38
3f44d96b
3f55814d
3e97fa87
3f435400
3e9cfc7b
3f485b5d
3d96332b
3f5bb2f7
3f23177e
3ebb6a5e
3f557306
3f46d81b
3f096f2e
3f5b0d58
3e929489